{
  "version": "1.0",
  "truncation": null,
  "padding": null,
  "added_tokens": [
    {
      "id": 0,
      "content": "[UNK]",
      "single_word": false,
      "lstrip": false,
      "rstrip": false,
      "normalized": false,
      "special": true
    },
    {
      "id": 1,
      "content": "[CLS]",
      "single_word": false,
      "lstrip": false,
      "rstrip": false,
      "normalized": false,
      "special": true
    },
    {
      "id": 2,
      "content": "[SEP]",
      "single_word": false,
      "lstrip": false,
      "rstrip": false,
      "normalized": false,
      "special": true
    },
    {
      "id": 3,
      "content": "[PAD]",
      "single_word": false,
      "lstrip": false,
      "rstrip": false,
      "normalized": false,
      "special": true
    },
    {
      "id": 4,
      "content": "[MASK]",
      "single_word": false,
      "lstrip": false,
      "rstrip": false,
      "normalized": false,
      "special": true
    }
  ],
  "normalizer": null,
  "pre_tokenizer": {
    "type": "Whitespace"
  },
  "post_processor": null,
  "decoder": null,
  "model": {
    "type": "BPE",
    "dropout": null,
    "unk_token": null,
    "continuing_subword_prefix": null,
    "end_of_word_suffix": null,
    "fuse_unk": false,
    "vocab": {
      "[UNK]": 0,
      "[CLS]": 1,
      "[SEP]": 2,
      "[PAD]": 3,
      "[MASK]": 4,
      "!": 5,
      "\"": 6,
      "#": 7,
      "$": 8,
      "%": 9,
      "&": 10,
      "'": 11,
      "(": 12,
      ")": 13,
      "*": 14,
      "+": 15,
      ",": 16,
      "-": 17,
      ".": 18,
      "/": 19,
      "0": 20,
      "1": 21,
      "2": 22,
      "3": 23,
      "4": 24,
      "5": 25,
      "6": 26,
      "7": 27,
      "8": 28,
      "9": 29,
      ":": 30,
      ";": 31,
      "<": 32,
      "=": 33,
      ">": 34,
      "?": 35,
      "@": 36,
      "A": 37,
      "B": 38,
      "C": 39,
      "D": 40,
      "E": 41,
      "F": 42,
      "G": 43,
      "H": 44,
      "I": 45,
      "J": 46,
      "K": 47,
      "L": 48,
      "M": 49,
      "N": 50,
      "O": 51,
      "P": 52,
      "Q": 53,
      "R": 54,
      "S": 55,
      "T": 56,
      "U": 57,
      "V": 58,
      "W": 59,
      "X": 60,
      "Y": 61,
      "Z": 62,
      "[": 63,
      "]": 64,
      "^": 65,
      "_": 66,
      "`": 67,
      "a": 68,
      "b": 69,
      "c": 70,
      "d": 71,
      "e": 72,
      "f": 73,
      "g": 74,
      "h": 75,
      "i": 76,
      "j": 77,
      "k": 78,
      "l": 79,
      "m": 80,
      "n": 81,
      "o": 82,
      "p": 83,
      "q": 84,
      "r": 85,
      "s": 86,
      "t": 87,
      "u": 88,
      "v": 89,
      "w": 90,
      "x": 91,
      "y": 92,
      "z": 93,
      "": 94,
      "": 95,
      "": 96,
      "": 97,
      "¡": 98,
      "£": 99,
      "¥": 100,
      "©": 101,
      "«": 102,
      "­": 103,
      "®": 104,
      "°": 105,
      "²": 106,
      "³": 107,
      "´": 108,
      "¶": 109,
      "»": 110,
      "¼": 111,
      "½": 112,
      "¾": 113,
      "Á": 114,
      "Ä": 115,
      "Å": 116,
      "Ç": 117,
      "É": 118,
      "Ö": 119,
      "×": 120,
      "Ü": 121,
      "ß": 122,
      "à": 123,
      "á": 124,
      "â": 125,
      "ã": 126,
      "ä": 127,
      "ç": 128,
      "è": 129,
      "é": 130,
      "ê": 131,
      "ë": 132,
      "í": 133,
      "ï": 134,
      "ñ": 135,
      "ó": 136,
      "ô": 137,
      "ö": 138,
      "ø": 139,
      "ú": 140,
      "û": 141,
      "ü": 142,
      "ý": 143,
      "ā": 144,
      "ć": 145,
      "Č": 146,
      "ě": 147,
      "ī": 148,
      "œ": 149,
      "š": 150,
      "ū": 151,
      "Ű": 152,
      "β": 153,
      "к": 154,
      "Ӓ": 155,
      "‒": 156,
      "–": 157,
      "—": 158,
      "‘": 159,
      "’": 160,
      "‚": 161,
      "“": 162,
      "”": 163,
      "„": 164,
      "‟": 165,
      "…": 166,
      "‹": 167,
      "›": 168,
      "€": 169,
      "™": 170,
      "♪": 171,
      "♫": 172,
      "你": 173,
      "葱": 174,
      "送": 175,
      "﻿": 176,
      "，": 177,
      "en": 178,
      "er": 179,
      "ch": 180,
      "in": 181,
      "ie": 182,
      "un": 183,
      "ich": 184,
      "st": 185,
      "ein": 186,
      "an": 187,
      "as": 188,
      "es": 189,
      "ei": 190,
      "die": 191,
      "der": 192,
      "au": 193,
      "te": 194,
      "al": 195,
      "und": 196,
      "sch": 197,
      "on": 198,
      "ir": 199,
      "ge": 200,
      "den": 201,
      "ar": 202,
      "das": 203,
      "zu": 204,
      "gen": 205,
      "ten": 206,
      "hr": 207,
      "el": 208,
      "de": 209,
      "ist": 210,
      "or": 211,
      "at": 212,
      "le": 213,
      "it": 214,
      "wir": 215,
      "se": 216,
      "eine": 217,
      "ab": 218,
      "icht": 219,
      "ach": 220,
      "ier": 221,
      "lich": 222,
      "ur": 223,
      "so": 224,
      "ter": 225,
      "be": 226,
      "ung": 227,
      "ber": 228,
      "ver": 229,
      "sie": 230,
      "am": 231,
      "sen": 232,
      "Un": 233,
      "Sie": 234,
      "auf": 235,
      "nen": 236,
      "ür": 237,
      "ig": 238,
      "um": 239,
      "ro": 240,
      "von": 241,
      "nicht": 242,
      "ll": 243,
      "re": 244,
      "dass": 245,
      "im": 246,
      "eit": 247,
      "ben": 248,
      "is": 249,
      "et": 250,
      "mit": 251,
      "ck": 252,
      "ser": 253,
      "Und": 254,
      "ann": 255,
      "men": 256,
      "hab": 257,
      "aus": 258,
      "wie": 259,
      "war": 260,
      "ion": 261,
      "ind": 262,
      "om": 263,
      "isch": 264,
      "hen": 265,
      "wei": 266,
      "sich": 267,
      "enn": 268,
      "was": 269,
      "kt": 270,
      "man": 271,
      "Ich": 272,
      "ut": 273,
      "us": 274,
      "len": 275,
      "ag": 276,
      "für": 277,
      "ol": 278,
      "wer": 279,
      "eu": 280,
      "ahr": 281,
      "sind": 282,
      "über": 283,
      "ft": 284,
      "ön": 285,
      "ste": 286,
      "ent": 287,
      "haben": 288,
      "sp": 289,
      "einen": 290,
      "dem": 291,
      "diese": 292,
      "hat": 293,
      "als": 294,
      "ra": 295,
      "St": 296,
      "iel": 297,
      "il": 298,
      "and": 299,
      "ik": 300,
      "än": 301,
      "ff": 302,
      "Das": 303,
      "Die": 304,
      "kön": 305,
      "Es": 306,
      "des": 307,
      "Wir": 308,
      "och": 309,
      "Sch": 310,
      "In": 311,
      "einer": 312,
      "auch": 313,
      "all": 314,
      "bei": 315,
      "ne": 316,
      "Er": 317,
      "me": 318,
      "da": 319,
      "vor": 320,
      "Ge": 321,
      "her": 322,
      "sten": 323,
      "br": 324,
      "ges": 325,
      "je": 326,
      "wo": 327,
      "wenn": 328,
      "ihr": 329,
      "ander": 330,
      "uns": 331,
      "Ver": 332,
      "einem": 333,
      "elt": 334,
      "ern": 335,
      "ieren": 336,
      "mach": 337,
      "bt": 338,
      "tz": 339,
      "oder": 340,
      "kom": 341,
      "ell": 342,
      "kann": 343,
      "mer": 344,
      "Pro": 345,
      "rei": 346,
      "schen": 347,
      "können": 348,
      "unser": 349,
      "werden": 350,
      "Men": 351,
      "ien": 352,
      "Jahr": 353,
      "hl": 354,
      "scha": 355,
      "ungen": 356,
      "Ar": 357,
      "uch": 358,
      "iert": 359,
      "An": 360,
      "ken": 361,
      "ation": 362,
      "fü": 363,
      "gan": 364,
      "rü": 365,
      "he": 366,
      "aber": 367,
      "ht": 368,
      "nach": 369,
      "hal": 370,
      "Aber": 371,
      "kl": 372,
      "Al": 373,
      "hn": 374,
      "igen": 375,
      "ige": 376,
      "ort": 377,
      "Ein": 378,
      "ger": 379,
      "Ges": 380,
      "nur": 381,
      "hnen": 382,
      "wird": 383,
      "we": 384,
      "sehr": 385,
      "dar": 386,
      "Be": 387,
      "lan": 388,
      "gi": 389,
      "hier": 390,
      "ischen": 391,
      "Menschen": 392,
      "00": 393,
      "Le": 394,
      "gt": 395,
      "ör": 396,
      "lie": 397,
      "zen": 398,
      "iv": 399,
      "sehen": 400,
      "bes": 401,
      "ze": 402,
      "äch": 403,
      "sein": 404,
      "--": 405,
      "gibt": 406,
      "gr": 407,
      "mich": 408,
      "Re": 409,
      "urch": 410,
      "viel": 411,
      "ot": 412,
      "sa": 413,
      "os": 414,
      "wur": 415,
      "ob": 416,
      "issen": 417,
      "ill": 418,
      "hin": 419,
      "dies": 420,
      "zt": 421,
      "dann": 422,
      "noch": 423,
      "ät": 424,
      "also": 425,
      "En": 426,
      "chen": 427,
      "lau": 428,
      "eute": 429,
      "mal": 430,
      "etwas": 431,
      "schaft": 432,
      "ick": 433,
      "eil": 434,
      "Sp": 435,
      "og": 436,
      "wä": 437,
      "durch": 438,
      "mö": 439,
      "dern": 440,
      "Welt": 441,
      "du": 442,
      "em": 443,
      "rie": 444,
      "tet": 445,
      "ru": 446,
      "habe": 447,
      "unter": 448,
      "mehr": 449,
      "alle": 450,
      "ellen": 451,
      "Was": 452,
      "mir": 453,
      "dieser": 454,
      "fin": 455,
      "sag": 456,
      "heit": 457,
      "sel": 458,
      "ke": 459,
      "op": 460,
      "roß": 461,
      "ische": 462,
      "mus": 463,
      "fen": 464,
      "sam": 465,
      "Wenn": 466,
      "lichen": 467,
      "keit": 468,
      "wen": 469,
      "rau": 470,
      "eigen": 471,
      "mein": 472,
      "ul": 473,
      "Leben": 474,
      "ffen": 475,
      "ing": 476,
      "Au": 477,
      ".\"": 478,
      "wirk": 479,
      "liche": 480,
      "einf": 481,
      "gel": 482,
      "kon": 483,
      "per": 484,
      "wür": 485,
      "üs": 486,
      "immer": 487,
      "kommen": 488,
      "hmen": 489,
      "iele": 490,
      "oll": 491,
      "for": 492,
      "machen": 493,
      "etzt": 494,
      "zum": 495,
      "wurde": 496,
      "Zeit": 497,
      "hren": 498,
      "son": 499,
      "mt": 500,
      "such": 501,
      "fe": 502,
      "Ihnen": 503,
      "stell": 504,
      "zwei": 505,
      "groß": 506,
      "ran": 507,
      "assen": 508,
      "weil": 509,
      "inn": 510,
      "einfach": 511,
      "wirklich": 512,
      "bst": 513,
      "meine": 514,
      "zie": 515,
      "Gesch": 516,
      "ess": 517,
      "bl": 518,
      "llen": 519,
      "wissen": 520,
      "ech": 521,
      "rück": 522,
      "ungs": 523,
      "Din": 524,
      "bin": 525,
      "tun": 526,
      "bar": 527,
      "pro": 528,
      "Also": 529,
      "gesch": 530,
      "gew": 531,
      "sagen": 532,
      "Gr": 533,
      "äu": 534,
      "neu": 535,
      "ass": 536,
      "hatte": 537,
      "gef": 538,
      "müs": 539,
      "bis": 540,
      "dam": 541,
      "ktion": 542,
      "geb": 543,
      "iz": 544,
      "schie": 545,
      "ster": 546,
      "tern": 547,
      "unsere": 548,
      "hlen": 549,
      "eiten": 550,
      "dieses": 551,
      "eines": 552,
      "ap": 553,
      "leich": 554,
      "nte": 555,
      "tel": 556,
      "är": 557,
      "leicht": 558,
      "acht": 559,
      "ück": 560,
      "keine": 561,
      "art": 562,
      "glich": 563,
      "Leute": 564,
      "gehen": 565,
      "ihre": 566,
      "ßen": 567,
      "ichtig": 568,
      "che": 569,
      "macht": 570,
      "Da": 571,
      "müssen": 572,
      "viele": 573,
      "ad": 574,
      "Man": 575,
      "ble": 576,
      "tr": 577,
      "diesem": 578,
      "weiter": 579,
      "Art": 580,
      "Ihr": 581,
      "soll": 582,
      "halten": 583,
      "waren": 584,
      "Me": 585,
      "olog": 586,
      "sagte": 587,
      "Zu": 588,
      "Dinge": 589,
      "arbei": 590,
      "Wie": 591,
      "ingen": 592,
      "stellen": 593,
      "diesen": 594,
      "ant": 595,
      "unden": 596,
      "Jahren": 597,
      "hör": 598,
      "chte": 599,
      "eln": 600,
      "fr": 601,
      "fl": 602,
      "Kon": 603,
      "ler": 604,
      "det": 605,
      "pt": 606,
      "geben": 607,
      "ast": 608,
      "gab": 609,
      "andere": 610,
      "Or": 611,
      "Vor": 612,
      "Aus": 613,
      "ild": 614,
      "jetzt": 615,
      "iger": 616,
      "glau": 617,
      "geht": 618,
      "ielen": 619,
      "anderen": 620,
      "ho": 621,
      "So": 622,
      "erz": 623,
      "wieder": 624,
      "cht": 625,
      "ats": 626,
      "ionen": 627,
      "stehen": 628,
      "erst": 629,
      "Kin": 630,
      "ität": 631,
      "brauch": 632,
      "Bei": 633,
      "nie": 634,
      "zur": 635,
      "nis": 636,
      "gleich": 637,
      "Der": 638,
      "würde": 639,
      "Proble": 640,
      "Unter": 641,
      "gl": 642,
      "finden": 643,
      "alles": 644,
      "wick": 645,
      "nehmen": 646,
      "ichte": 647,
      "pp": 648,
      "letz": 649,
      "ün": 650,
      "Ent": 651,
      "Mit": 652,
      "schl": 653,
      "selbst": 654,
      "auen": 655,
      "damit": 656,
      "gend": 657,
      "gut": 658,
      "spiel": 659,
      "na": 660,
      "Se": 661,
      "äl": 662,
      "Mill": 663,
      "Mo": 664,
      "beit": 665,
      "leben": 666,
      "alt": 667,
      "änder": 668,
      "under": 669,
      "kam": 670,
      "Jahre": 671,
      "We": 672,
      "ial": 673,
      "denken": 674,
      "Auf": 675,
      "inter": 676,
      "ache": 677,
      "hei": 678,
      "rä": 679,
      "zurück": 680,
      "yste": 681,
      "Frau": 682,
      "gar": 683,
      "rit": 684,
      "genau": 685,
      "fahr": 686,
      "hm": 687,
      "fol": 688,
      "ragen": 689,
      "muss": 690,
      "ok": 691,
      "Um": 692,
      "beg": 693,
      "zent": 694,
      "ert": 695,
      "schn": 696,
      "ähr": 697,
      "besser": 698,
      "schon": 699,
      "mei": 700,
      "pa": 701,
      "ma": 702,
      "igkeit": 703,
      "öß": 704,
      "ächlich": 705,
      "Dan": 706,
      "pf": 707,
      "Fl": 708,
      "heraus": 709,
      "zw": 710,
      "reich": 711,
      "ekt": 712,
      "pass": 713,
      "denn": 714,
      "echn": 715,
      "elle": 716,
      "wa": 717,
      "Kinder": 718,
      "setz": 719,
      "ganz": 720,
      "möchte": 721,
      "zusam": 722,
      "denen": 723,
      "zusammen": 724,
      "ihnen": 725,
      "nten": 726,
      "ner": 727,
      "Dies": 728,
      "vielleicht": 729,
      "Nun": 730,
      "weg": 731,
      "versuch": 732,
      "dig": 733,
      "ationen": 734,
      "halb": 735,
      "lei": 736,
      "lassen": 737,
      "fan": 738,
      "Ide": 739,
      "age": 740,
      "cken": 741,
      "aut": 742,
      "drei": 743,
      "atsächlich": 744,
      "wahr": 745,
      "ak": 746,
      "kommt": 747,
      "zei": 748,
      "oh": 749,
      "davon": 750,
      "lang": 751,
      "dort": 752,
      "pl": 753,
      "Techn": 754,
      "Wissen": 755,
      "Land": 756,
      "wel": 757,
      "ale": 758,
      "Ne": 759,
      "Hier": 760,
      "rechen": 761,
      "ahl": 762,
      "Grund": 763,
      "Tag": 764,
      "dien": 765,
      "gegen": 766,
      "ierte": 767,
      "teil": 768,
      "schein": 769,
      "ug": 770,
      "heute": 771,
      "hatten": 772,
      "ater": 773,
      "Teil": 774,
      "hir": 775,
      "esen": 776,
      "Geschichte": 777,
      "000": 778,
      "att": 779,
      "weise": 780,
      "atür": 781,
      "form": 782,
      "For": 783,
      "..": 784,
      "stim": 785,
      "Gen": 786,
      "Bild": 787,
      "Bl": 788,
      "schw": 789,
      "Arbeit": 790,
      "ändern": 791,
      "mlich": 792,
      "achte": 793,
      "ex": 794,
      "ihn": 795,
      "off": 796,
      "Diese": 797,
      "könnte": 798,
      "eld": 799,
      "Nach": 800,
      "aum": 801,
      "wollen": 802,
      "ystem": 803,
      "einige": 804,
      "bringen": 805,
      "rage": 806,
      "führ": 807,
      "wichtig": 808,
      "paar": 809,
      "will": 810,
      "kte": 811,
      "meiner": 812,
      "ologie": 813,
      "unktion": 814,
      "ere": 815,
      "ade": 816,
      "tro": 817,
      "woll": 818,
      "mand": 819,
      "amm": 820,
      "vers": 821,
      "größ": 822,
      "nun": 823,
      "Wei": 824,
      "utzen": 825,
      "uss": 826,
      "oren": 827,
      "Per": 828,
      "wurden": 829,
      "atz": 830,
      "besch": 831,
      "darüber": 832,
      "tre": 833,
      "qu": 834,
      "wor": 835,
      "einz": 836,
      "Fre": 837,
      "stand": 838,
      "werde": 839,
      "hand": 840,
      "ment": 841,
      "Problem": 842,
      "weiß": 843,
      "sol": 844,
      "ha": 845,
      "aten": 846,
      "sieht": 847,
      "voll": 848,
      "sondern": 849,
      "?\"": 850,
      "tatsächlich": 851,
      "erg": 852,
      "zeu": 853,
      "omp": 854,
      "hrend": 855,
      "äd": 856,
      "20": 857,
      "ichten": 858,
      "los": 859,
      "Kl": 860,
      "Beispiel": 861,
      "Im": 862,
      "dan": 863,
      "Stu": 864,
      "entwick": 865,
      "bede": 866,
      "atur": 867,
      "ri": 868,
      "zwischen": 869,
      "unserer": 870,
      "amen": 871,
      "atürlich": 872,
      "ja": 873,
      "alen": 874,
      "allen": 875,
      "richt": 876,
      "stellt": 877,
      "Gehir": 878,
      "Als": 879,
      "Wasser": 880,
      "tlich": 881,
      "seine": 882,
      "Ab": 883,
      "stän": 884,
      "äh": 885,
      "achen": 886,
      "neue": 887,
      "agt": 888,
      "uten": 889,
      "ehen": 890,
      "irgend": 891,
      "wäre": 892,
      "di": 893,
      "wus": 894,
      "eite": 895,
      "fühl": 896,
      "Aut": 897,
      "denke": 898,
      "Her": 899,
      "ive": 900,
      "dazu": 901,
      "aufen": 902,
      "Geb": 903,
      "achten": 904,
      "ren": 905,
      "vom": 906,
      "19": 907,
      "doch": 908,
      "ult": 909,
      "Wer": 910,
      "ins": 911,
      "hät": 912,
      "gemacht": 913,
      "akt": 914,
      "funktion": 915,
      "schei": 916,
      "sprechen": 917,
      "Mon": 918,
      "kein": 919,
      "Des": 920,
      "sogar": 921,
      "ine": 922,
      "olle": 923,
      "einmal": 924,
      "ütz": 925,
      "Hand": 926,
      "sicher": 927,
      "ute": 928,
      "wohl": 929,
      "öff": 930,
      "gerade": 931,
      "zeigen": 932,
      "gest": 933,
      "möglich": 934,
      "ften": 935,
      "Über": 936,
      "arbeiten": 937,
      "interess": 938,
      "kennen": 939,
      "glaube": 940,
      "Mar": 941,
      "ierung": 942,
      "Frauen": 943,
      "etz": 944,
      "Frage": 945,
      "seit": 946,
      "anz": 947,
      "ohne": 948,
      "verschie": 949,
      "Lebens": 950,
      "keiten": 951,
      "Gehirn": 952,
      "10": 953,
      "wegen": 954,
      "dr": 955,
      "letzten": 956,
      "ika": 957,
      "näch": 958,
      "fer": 959,
      "rün": 960,
      "get": 961,
      "ersten": 962,
      "Mal": 963,
      "jeder": 964,
      "nichts": 965,
      "Je": 966,
      "ph": 967,
      "ele": 968,
      "Reg": 969,
      "Daten": 970,
      "erzä": 971,
      "Ex": 972,
      "tschaft": 973,
      "steht": 974,
      "würden": 975,
      "ys": 976,
      "dafür": 977,
      "ihren": 978,
      "War": 979,
      "ce": 980,
      "ign": 981,
      "uter": 982,
      "konnte": 983,
      "Ant": 984,
      "passiert": 985,
      "od": 986,
      "agen": 987,
      "Prozent": 988,
      "meinen": 989,
      "zeit": 990,
      "ätz": 991,
      "unkt": 992,
      "Eine": 993,
      "unde": 994,
      "meisten": 995,
      "ikan": 996,
      "Millionen": 997,
      "Ch": 998,
      "während": 999,
      "essen": 1000,
      "verstehen": 1001,
      "hän": 1002,
      "innen": 1003,
      "rank": 1004,
      "weit": 1005,
      "ös": 1006,
      "Gl": 1007,
      "fall": 1008,
      "örper": 1009,
      "erste": 1010,
      "daran": 1011,
      "vier": 1012,
      "The": 1013,
      "Wo": 1014,
      "star": 1015,
      "Ihre": 1016,
      "welt": 1017,
      "zial": 1018,
      "ßer": 1019,
      "ate": 1020,
      "mensch": 1021,
      "Uni": 1022,
      "schaffen": 1023,
      "ide": 1024,
      "etwa": 1025,
      "ischer": 1026,
      "ging": 1027,
      "utz": 1028,
      "abei": 1029,
      "wort": 1030,
      "est": 1031,
      "ip": 1032,
      "warum": 1033,
      "kur": 1034,
      "ts": 1035,
      "gesehen": 1036,
      "sollte": 1037,
      "natürlich": 1038,
      "ßt": 1039,
      "ay": 1040,
      "Idee": 1041,
      "ergie": 1042,
      "sollten": 1043,
      "bs": 1044,
      "pr": 1045,
      "bekommen": 1046,
      "50": 1047,
      "Mö": 1048,
      "einander": 1049,
      "licher": 1050,
      "Schl": 1051,
      "jekt": 1052,
      "spr": 1053,
      "ang": 1054,
      "cher": 1055,
      "iere": 1056,
      "Ger": 1057,
      "schnell": 1058,
      "meinem": 1059,
      "sagt": 1060,
      "Person": 1061,
      "lichkeit": 1062,
      "Geld": 1063,
      "könnten": 1064,
      "große": 1065,
      "wollte": 1066,
      "net": 1067,
      "Raum": 1068,
      "Schu": 1069,
      "ogen": 1070,
      "ker": 1071,
      "Pl": 1072,
      "bereit": 1073,
      "ganze": 1074,
      "verl": 1075,
      "aupt": 1076,
      "yp": 1077,
      "Weg": 1078,
      "ckt": 1079,
      "schied": 1080,
      "Comp": 1081,
      "ic": 1082,
      "ziemlich": 1083,
      "sicht": 1084,
      "De": 1085,
      "ihrer": 1086,
      "if": 1087,
      "str": 1088,
      "zeigt": 1089,
      "ingt": 1090,
      "Doll": 1091,
      "bauen": 1092,
      "enz": 1093,
      "onder": 1094,
      "Inform": 1095,
      "hö": 1096,
      "Dollar": 1097,
      "Plan": 1098,
      "dabei": 1099,
      "eilen": 1100,
      "hören": 1101,
      "hunder": 1102,
      "utet": 1103,
      "Kre": 1104,
      "All": 1105,
      "fte": 1106,
      "Dank": 1107,
      "setzen": 1108,
      "gefähr": 1109,
      "Univers": 1110,
      "Bo": 1111,
      "adt": 1112,
      "kun": 1113,
      "lung": 1114,
      "ord": 1115,
      "darauf": 1116,
      "Mann": 1117,
      "Wissenschaft": 1118,
      "schlie": 1119,
      "Ja": 1120,
      "amil": 1121,
      "legen": 1122,
      "Ph": 1123,
      "utter": 1124,
      "ktur": 1125,
      "ppe": 1126,
      "brauchen": 1127,
      "Min": 1128,
      "Ende": 1129,
      "Kind": 1130,
      "wach": 1131,
      "äter": 1132,
      "Stra": 1133,
      "Qu": 1134,
      "weniger": 1135,
      "Ste": 1136,
      "reiben": 1137,
      "olit": 1138,
      "ss": 1139,
      "Technologie": 1140,
      "Mus": 1141,
      "kleinen": 1142,
      "Ma": 1143,
      "mittel": 1144,
      "fahren": 1145,
      "betr": 1146,
      "mat": 1147,
      "recht": 1148,
      "welche": 1149,
      "ativ": 1150,
      "jemand": 1151,
      "iff": 1152,
      "ommen": 1153,
      "inner": 1154,
      "Dann": 1155,
      "\".": 1156,
      "kunft": 1157,
      "dir": 1158,
      "dachte": 1159,
      "ierten": 1160,
      "tig": 1161,
      "laub": 1162,
      "US": 1163,
      "reichen": 1164,
      "bedeutet": 1165,
      "Computer": 1166,
      "tra": 1167,
      "Körper": 1168,
      "Rei": 1169,
      "bestim": 1170,
      "wand": 1171,
      "Famil": 1172,
      "Lie": 1173,
      "Mein": 1174,
      "grund": 1175,
      "unseren": 1176,
      "führen": 1177,
      "Sache": 1178,
      "orgen": 1179,
      "Möglich": 1180,
      "Spr": 1181,
      "sei": 1182,
      "asch": 1183,
      "Energie": 1184,
      "Denn": 1185,
      "statt": 1186,
      "ganis": 1187,
      "hört": 1188,
      "verwen": 1189,
      "Warum": 1190,
      "Inter": 1191,
      "äft": 1192,
      "zeich": 1193,
      "ko": 1194,
      "schle": 1195,
      "vö": 1196,
      "alten": 1197,
      "kleine": 1198,
      "ihm": 1199,
      "Spiel": 1200,
      "folg": 1201,
      "ange": 1202,
      "Seite": 1203,
      "bel": 1204,
      "fest": 1205,
      "eigentlich": 1206,
      "großen": 1207,
      "Gru": 1208,
      "Män": 1209,
      "nä": 1210,
      "Fall": 1211,
      "hel": 1212,
      "chten": 1213,
      "führt": 1214,
      "ition": 1215,
      "raft": 1216,
      "oten": 1217,
      "wenig": 1218,
      "ald": 1219,
      "let": 1220,
      "Bi": 1221,
      "Groß": 1222,
      "lange": 1223,
      "Kar": 1224,
      "Ber": 1225,
      "200": 1226,
      "häl": 1227,
      "offen": 1228,
      "liegen": 1229,
      "Viel": 1230,
      "mals": 1231,
      "jeden": 1232,
      "besonder": 1233,
      "Pr": 1234,
      "sst": 1235,
      "opf": 1236,
      "scheinlich": 1237,
      "Weise": 1238,
      "\",": 1239,
      "lin": 1240,
      "ett": 1241,
      "hoch": 1242,
      "komp": 1243,
      "ust": 1244,
      "Kom": 1245,
      "gesagt": 1246,
      "kten": 1247,
      "schön": 1248,
      "imm": 1249,
      "schaften": 1250,
      "Licht": 1251,
      "Stadt": 1252,
      "Buch": 1253,
      "lernen": 1254,
      "gemein": 1255,
      "ganzen": 1256,
      "halt": 1257,
      "Du": 1258,
      "kenn": 1259,
      "nung": 1260,
      "schauen": 1261,
      "rat": 1262,
      "amer": 1263,
      "ruck": 1264,
      "Fil": 1265,
      "keinen": 1266,
      "hätte": 1267,
      "id": 1268,
      "jen": 1269,
      "Woch": 1270,
      "fern": 1271,
      "außer": 1272,
      "klär": 1273,
      "versuchen": 1274,
      "vol": 1275,
      "dung": 1276,
      "Menge": 1277,
      "Zukunft": 1278,
      "fün": 1279,
      "wunder": 1280,
      "sah": 1281,
      "Entwick": 1282,
      "ultur": 1283,
      "ia": 1284,
      "zahl": 1285,
      "später": 1286,
      "Ort": 1287,
      "glauben": 1288,
      "Intern": 1289,
      "dlich": 1290,
      "ott": 1291,
      "stellung": 1292,
      "System": 1293,
      "sy": 1294,
      "öffent": 1295,
      "eist": 1296,
      "Bes": 1297,
      "Den": 1298,
      "Gemein": 1299,
      "ution": 1300,
      "iar": 1301,
      "rieben": 1302,
      "30": 1303,
      "Danke": 1304,
      "asse": 1305,
      "Vielen": 1306,
      "mp": 1307,
      "Son": 1308,
      "gang": 1309,
      "vielen": 1310,
      "...": 1311,
      "genommen": 1312,
      "beim": 1313,
      "undheit": 1314,
      "lex": 1315,
      "unglaub": 1316,
      "Augen": 1317,
      "Moment": 1318,
      "Ele": 1319,
      "ausen": 1320,
      "schwer": 1321,
      "lö": 1322,
      "konnten": 1323,
      "ormal": 1324,
      "ismus": 1325,
      "Verb": 1326,
      "Ha": 1327,
      "Pat": 1328,
      "Te": 1329,
      "eten": 1330,
      "wahrscheinlich": 1331,
      "ens": 1332,
      "eigenen": 1333,
      "heißt": 1334,
      "oft": 1335,
      "anden": 1336,
      "fast": 1337,
      "alität": 1338,
      "Afr": 1339,
      "tete": 1340,
      "funktioniert": 1341,
      "fünf": 1342,
      "Jetzt": 1343,
      "ard": 1344,
      "aller": 1345,
      "Milliar": 1346,
      "indem": 1347,
      "Natur": 1348,
      "deut": 1349,
      "sozial": 1350,
      "zer": 1351,
      "ße": 1352,
      "gestellt": 1353,
      "nutzen": 1354,
      "ruktur": 1355,
      "anzu": 1356,
      "gute": 1357,
      "kü": 1358,
      "verbr": 1359,
      "lo": 1360,
      "ffe": 1361,
      "jedes": 1362,
      "ändert": 1363,
      "itt": 1364,
      "iss": 1365,
      "hlt": 1366,
      "Bil": 1367,
      "Erde": 1368,
      "Gew": 1369,
      "stoff": 1370,
      "Ob": 1371,
      "anders": 1372,
      "hält": 1373,
      "Produ": 1374,
      "klar": 1375,
      "Haus": 1376,
      "Mutter": 1377,
      "spielen": 1378,
      "verschieden": 1379,
      "reis": 1380,
      "Pf": 1381,
      "wert": 1382,
      "helfen": 1383,
      "no": 1384,
      "iker": 1385,
      "Probleme": 1386,
      "Internet": 1387,
      "Vide": 1388,
      "ellschaft": 1389,
      "fä": 1390,
      "suchen": 1391,
      "Ko": 1392,
      "gst": 1393,
      "land": 1394,
      "Wahr": 1395,
      "liegt": 1396,
      "aden": 1397,
      "ammen": 1398,
      "blei": 1399,
      "At": 1400,
      "folgen": 1401,
      "Par": 1402,
      "Br": 1403,
      "ause": 1404,
      "El": 1405,
      "kel": 1406,
      "Gesundheit": 1407,
      "ED": 1408,
      "unge": 1409,
      "dent": 1410,
      "eile": 1411,
      "fort": 1412,
      "Amer": 1413,
      "rad": 1414,
      "herum": 1415,
      "eben": 1416,
      "mut": 1417,
      "richtig": 1418,
      "spe": 1419,
      "ks": 1420,
      "frü": 1421,
      "Mensch": 1422,
      "ziehen": 1423,
      "zeug": 1424,
      "wusst": 1425,
      "seiner": 1426,
      "fragen": 1427,
      "verb": 1428,
      "isches": 1429,
      "100": 1430,
      "ah": 1431,
      "erzählen": 1432,
      "Sta": 1433,
      "hinter": 1434,
      "frei": 1435,
      "satz": 1436,
      "Med": 1437,
      "nisse": 1438,
      "bo": 1439,
      "Sel": 1440,
      "eren": 1441,
      "Met": 1442,
      "Ok": 1443,
      "glichen": 1444,
      "forder": 1445,
      "produ": 1446,
      "wachsen": 1447,
      "Leu": 1448,
      "genug": 1449,
      "igt": 1450,
      "ünst": 1451,
      "isten": 1452,
      "neuen": 1453,
      "braucht": 1454,
      "Dar": 1455,
      "gramm": 1456,
      "iges": 1457,
      "unserem": 1458,
      "heiten": 1459,
      "Projekt": 1460,
      "ud": 1461,
      "zehn": 1462,
      "zentr": 1463,
      "hung": 1464,
      "chmal": 1465,
      "gangen": 1466,
      "volution": 1467,
      "ahlen": 1468,
      "verk": 1469,
      "Nicht": 1470,
      "nächsten": 1471,
      "haupt": 1472,
      "ite": 1473,
      "USA": 1474,
      "unst": 1475,
      "Form": 1476,
      "trau": 1477,
      "Rob": 1478,
      "begann": 1479,
      "Design": 1480,
      "io": 1481,
      "Gegen": 1482,
      "Lehr": 1483,
      "Res": 1484,
      "fangen": 1485,
      "ppen": 1486,
      "fre": 1487,
      "dessen": 1488,
      "fal": 1489,
      "tie": 1490,
      "ungefähr": 1491,
      "zess": 1492,
      "verändern": 1493,
      "Chin": 1494,
      "erinn": 1495,
      "ock": 1496,
      "Schw": 1497,
      "ogra": 1498,
      "Lu": 1499,
      "gehört": 1500,
      "Bür": 1501,
      "jede": 1502,
      "hme": 1503,
      "sage": 1504,
      "gleichen": 1505,
      "Fot": 1506,
      "New": 1507,
      "dre": 1508,
      "Kopf": 1509,
      "Selbst": 1510,
      "kre": 1511,
      "Mu": 1512,
      "Kunst": 1513,
      "ums": 1514,
      "rieg": 1515,
      "Forsch": 1516,
      "nt": 1517,
      "liches": 1518,
      "ritt": 1519,
      "normal": 1520,
      "umen": 1521,
      "bevor": 1522,
      "Planeten": 1523,
      "Fe": 1524,
      "Ideen": 1525,
      "Su": 1526,
      "Sy": 1527,
      "Zus": 1528,
      "Für": 1529,
      "Schule": 1530,
      "min": 1531,
      "bisschen": 1532,
      "Mater": 1533,
      "Unternehmen": 1534,
      "Fäh": 1535,
      "inz": 1536,
      "icher": 1537,
      "Leuten": 1538,
      "äre": 1539,
      "onen": 1540,
      "ktiv": 1541,
      "chn": 1542,
      "zug": 1543,
      "Musik": 1544,
      "bil": 1545,
      "frag": 1546,
      "seinen": 1547,
      "ähn": 1548,
      "sche": 1549,
      "äche": 1550,
      "itu": 1551,
      "reden": 1552,
      "Erfahr": 1553,
      "Informationen": 1554,
      "Punkt": 1555,
      "asst": 1556,
      "sagten": 1557,
      "TED": 1558,
      "bekann": 1559,
      "falls": 1560,
      "Vort": 1561,
      "Wor": 1562,
      "hol": 1563,
      "itzen": 1564,
      "To": 1565,
      "Mod": 1566,
      "überall": 1567,
      "Exper": 1568,
      "igkeiten": 1569,
      "Wirtschaft": 1570,
      "raum": 1571,
      "ädchen": 1572,
      "Meine": 1573,
      "erkennen": 1574,
      "Arten": 1575,
      "af": 1576,
      "bit": 1577,
      "rag": 1578,
      "lä": 1579,
      "angen": 1580,
      "teilen": 1581,
      "llig": 1582,
      "Lin": 1583,
      "oben": 1584,
      "pen": 1585,
      "Fragen": 1586,
      "län": 1587,
      "Pu": 1588,
      "fand": 1589,
      "entwickelt": 1590,
      "ome": 1591,
      "gesam": 1592,
      "findet": 1593,
      "Antwort": 1594,
      "hundert": 1595,
      "Milliarden": 1596,
      "lern": 1597,
      "utzt": 1598,
      "Bet": 1599,
      "euch": 1600,
      "Di": 1601,
      "bau": 1602,
      "bet": 1603,
      "schwier": 1604,
      "nennen": 1605,
      "chs": 1606,
      "darum": 1607,
      "Männer": 1608,
      "namen": 1609,
      "Gott": 1610,
      "Gebäu": 1611,
      "Mädchen": 1612,
      "musste": 1613,
      "ihrem": 1614,
      "15": 1615,
      "Dieses": 1616,
      "dich": 1617,
      "ienten": 1618,
      "ühr": 1619,
      "Glück": 1620,
      "Bü": 1621,
      "wirtschaft": 1622,
      "Netz": 1623,
      "Geschichten": 1624,
      "kamen": 1625,
      "Zwei": 1626,
      "schau": 1627,
      "arbeitet": 1628,
      "zept": 1629,
      "llt": 1630,
      "Afrika": 1631,
      "Jo": 1632,
      "Kön": 1633,
      "dest": 1634,
      "anderes": 1635,
      "fang": 1636,
      "großart": 1637,
      "izin": 1638,
      "Entschei": 1639,
      "bereits": 1640,
      "richten": 1641,
      "Richt": 1642,
      "bi": 1643,
      "entde": 1644,
      "machte": 1645,
      "glück": 1646,
      "Zusammen": 1647,
      "mag": 1648,
      "Auto": 1649,
      "Video": 1650,
      "Lös": 1651,
      "nahmen": 1652,
      "Nein": 1653,
      "Minuten": 1654,
      "mo": 1655,
      "gung": 1656,
      "mun": 1657,
      "immt": 1658,
      "sk": 1659,
      "erklär": 1660,
      "Kor": 1661,
      "erreichen": 1662,
      "aben": 1663,
      "Gesellschaft": 1664,
      "auszu": 1665,
      "Familie": 1666,
      "besonders": 1667,
      "Krank": 1668,
      "mm": 1669,
      "öhn": 1670,
      "Str": 1671,
      "Verhalten": 1672,
      "verschiedene": 1673,
      "alis": 1674,
      "ilfe": 1675,
      "itz": 1676,
      "Beweg": 1677,
      "rieb": 1678,
      "hätten": 1679,
      "namens": 1680,
      "leb": 1681,
      "dau": 1682,
      "Stück": 1683,
      "wär": 1684,
      "benutzen": 1685,
      "treffen": 1686,
      "orden": 1687,
      "Gruppe": 1688,
      "bild": 1689,
      "Macht": 1690,
      "seinem": 1691,
      "Unser": 1692,
      "gerne": 1693,
      "ret": 1694,
      "Fol": 1695,
      "einigen": 1696,
      "Fir": 1697,
      "Oder": 1698,
      "werk": 1699,
      "Ur": 1700,
      "Robo": 1701,
      "Indien": 1702,
      "Far": 1703,
      "euer": 1704,
      "indung": 1705,
      "ausge": 1706,
      "Vater": 1707,
      "drück": 1708,
      "aun": 1709,
      "darin": 1710,
      "Vielleicht": 1711,
      "langen": 1712,
      "entwickeln": 1713,
      "Co": 1714,
      "Organis": 1715,
      "prä": 1716,
      "stütz": 1717,
      "Bilder": 1718,
      "Lei": 1719,
      "Wort": 1720,
      "co": 1721,
      "Am": 1722,
      "gefunden": 1723,
      "Herz": 1724,
      "Weil": 1725,
      "wissenschaft": 1726,
      "kä": 1727,
      "akter": 1728,
      "Angst": 1729,
      "bewegen": 1730,
      "Ergeb": 1731,
      "glob": 1732,
      "hle": 1733,
      "cke": 1734,
      "Patienten": 1735,
      "Gefühl": 1736,
      "sor": 1737,
      "stra": 1738,
      "Doch": 1739,
      "fühlen": 1740,
      "scheiden": 1741,
      "Kultur": 1742,
      "ßlich": 1743,
      "hler": 1744,
      "jedem": 1745,
      "ries": 1746,
      "geln": 1747,
      "tausen": 1748,
      "bare": 1749,
      "mar": 1750,
      "Flug": 1751,
      "lker": 1752,
      "Durch": 1753,
      "Film": 1754,
      "Oh": 1755,
      "Sprache": 1756,
      "Masch": 1757,
      "sechs": 1758,
      "gebaut": 1759,
      "Stunden": 1760,
      "Eltern": 1761,
      "gewöhn": 1762,
      "ans": 1763,
      "Dem": 1764,
      "genann": 1765,
      "Gedan": 1766,
      "Spe": 1767,
      "Sü": 1768,
      "bracht": 1769,
      "Luft": 1770,
      "ume": 1771,
      "Regierung": 1772,
      "vorstellen": 1773,
      "punkt": 1774,
      "erhalten": 1775,
      "ings": 1776,
      "polit": 1777,
      "Eigen": 1778,
      "esse": 1779,
      "Freund": 1780,
      "gal": 1781,
      "sych": 1782,
      "ase": 1783,
      "ikro": 1784,
      "lebt": 1785,
      "Schul": 1786,
      "vorher": 1787,
      "bestimm": 1788,
      "Gener": 1789,
      "40": 1790,
      "Okay": 1791,
      "Möglichkeit": 1792,
      "besten": 1793,
      "ium": 1794,
      "gaben": 1795,
      "Fin": 1796,
      "blick": 1797,
      "Bere": 1798,
      "Part": 1799,
      "jeman": 1800,
      "ständig": 1801,
      "irgendwie": 1802,
      "grün": 1803,
      "iken": 1804,
      "verschiedenen": 1805,
      "gern": 1806,
      "han": 1807,
      "Roboter": 1808,
      "eich": 1809,
      "gte": 1810,
      "ahn": 1811,
      "bie": 1812,
      "ider": 1813,
      "standen": 1814,
      "Sicher": 1815,
      "zä": 1816,
      "Rück": 1817,
      "ron": 1818,
      "urop": 1819,
      "beiden": 1820,
      "manchmal": 1821,
      "Veränder": 1822,
      "unterschied": 1823,
      "üt": 1824,
      "ständ": 1825,
      "sön": 1826,
      "techn": 1827,
      "stens": 1828,
      "wollten": 1829,
      "okrat": 1830,
      "Bereich": 1831,
      "Städ": 1832,
      "lösen": 1833,
      "tes": 1834,
      "bemer": 1835,
      "Bezie": 1836,
      "Grün": 1837,
      "schreiben": 1838,
      "getan": 1839,
      "äten": 1840,
      "ank": 1841,
      "aufzu": 1842,
      "menschlichen": 1843,
      "Na": 1844,
      "Yor": 1845,
      "samm": 1846,
      "erwar": 1847,
      "fän": 1848,
      "tragen": 1849,
      "ante": 1850,
      "are": 1851,
      "einzige": 1852,
      "Kur": 1853,
      "verändert": 1854,
      "Po": 1855,
      "verwenden": 1856,
      "ehmen": 1857,
      "Sol": 1858,
      "nämlich": 1859,
      "Neu": 1860,
      "hiel": 1861,
      "zieren": 1862,
      "Gesicht": 1863,
      "Sinn": 1864,
      "tens": 1865,
      "Fahr": 1866,
      "Hause": 1867,
      "enzen": 1868,
      "ure": 1869,
      "blik": 1870,
      "aktion": 1871,
      "vest": 1872,
      "Stim": 1873,
      "heut": 1874,
      "kurz": 1875,
      "Sachen": 1876,
      "Meer": 1877,
      "60": 1878,
      "affen": 1879,
      "gabe": 1880,
      "18": 1881,
      "deren": 1882,
      "NA": 1883,
      "Hö": 1884,
      "stellte": 1885,
      "laufen": 1886,
      "zin": 1887,
      "eher": 1888,
      "system": 1889,
      "bringt": 1890,
      "häu": 1891,
      "Bed": 1892,
      "China": 1893,
      "Ro": 1894,
      "beginnen": 1895,
      "unglaublich": 1896,
      "Gebäude": 1897,
      "Arch": 1898,
      "welch": 1899,
      "Gleich": 1900,
      "innerhalb": 1901,
      "bed": 1902,
      "Ziel": 1903,
      "Werk": 1904,
      "Krebs": 1905,
      "one": 1906,
      "Dieser": 1907,
      "reifen": 1908,
      "erweise": 1909,
      "gebracht": 1910,
      "sent": 1911,
      "Kindern": 1912,
      "merk": 1913,
      "gemeinsam": 1914,
      "Bau": 1915,
      "He": 1916,
      "dungen": 1917,
      "inen": 1918,
      "überhaupt": 1919,
      "ranken": 1920,
      "Bab": 1921,
      "Chr": 1922,
      "Lab": 1923,
      "Länder": 1924,
      "beob": 1925,
      "häng": 1926,
      "läu": 1927,
      "omen": 1928,
      "zustellen": 1929,
      "reicht": 1930,
      "griff": 1931,
      "lle": 1932,
      "zun": 1933,
      "einzel": 1934,
      "Heraus": 1935,
      "denten": 1936,
      "lässt": 1937,
      "eins": 1938,
      "onnen": 1939,
      "gegeben": 1940,
      "scheint": 1941,
      "Material": 1942,
      "fäh": 1943,
      "rot": 1944,
      "Krieg": 1945,
      "Mat": 1946,
      "uß": 1947,
      "hemat": 1948,
      "kennt": 1949,
      "haus": 1950,
      "Umwelt": 1951,
      "fert": 1952,
      "jähr": 1953,
      "berfl": 1954,
      "Wirk": 1955,
      "tu": 1956,
      "Nacht": 1957,
      "versucht": 1958,
      "wusste": 1959,
      "kehr": 1960,
      "Kam": 1961,
      "kleiner": 1962,
      "Prozess": 1963,
      "lieben": 1964,
      "Entwicklung": 1965,
      "ffekt": 1966,
      "ivi": 1967,
      "bleiben": 1968,
      "zwar": 1969,
      "erzeu": 1970,
      "Herausforder": 1971,
      "tem": 1972,
      "Rest": 1973,
      "allem": 1974,
      "Lage": 1975,
      "nimmt": 1976,
      "iet": 1977,
      "nahm": 1978,
      "völker": 1979,
      "Che": 1980,
      "eig": 1981,
      "schließlich": 1982,
      "Lehrer": 1983,
      "Inst": 1984,
      "Prot": 1985,
      "mögen": 1986,
      "Universum": 1987,
      "Stellen": 1988,
      "Publik": 1989,
      "Pol": 1990,
      "Anfang": 1991,
      "sterben": 1992,
      "fanden": 1993,
      "wohn": 1994,
      "nahme": 1995,
      "Wochen": 1996,
      "Frei": 1997,
      "Pap": 1998,
      "ont": 1999,
      "ital": 2000,
      "Kap": 2001,
      "Prä": 2002,
      "orie": 2003,
      "lesen": 2004,
      "bewusst": 2005,
      "80": 2006,
      "Zum": 2007,
      "ras": 2008,
      "ative": 2009,
      "reg": 2010,
      "si": 2011,
      "haft": 2012,
      "Erfahrung": 2013,
      "Experim": 2014,
      "Essen": 2015,
      "amerikan": 2016,
      "uren": 2017,
      "baren": 2018,
      "erf": 2019,
      "Dam": 2020,
      "Tier": 2021,
      "unten": 2022,
      "mussten": 2023,
      "ument": 2024,
      "isk": 2025,
      "meines": 2026,
      "Geschäft": 2027,
      "uer": 2028,
      "alter": 2029,
      "auft": 2030,
      "Tiere": 2031,
      "sätz": 2032,
      "ötz": 2033,
      "tell": 2034,
      "Dingen": 2035,
      "arten": 2036,
      "Tages": 2037,
      "12": 2038,
      "arbeit": 2039,
      "elten": 2040,
      "Mittel": 2041,
      "heim": 2042,
      "Sicherheit": 2043,
      "eitet": 2044,
      "dete": 2045,
      "langsam": 2046,
      "Freunde": 2047,
      "interessant": 2048,
      "spir": 2049,
      "möglichen": 2050,
      "nächste": 2051,
      "Struktur": 2052,
      "weitere": 2053,
      "letzte": 2054,
      "Situ": 2055,
      "teten": 2056,
      "tut": 2057,
      "Klim": 2058,
      "menschliche": 2059,
      "bald": 2060,
      "exist": 2061,
      "Markt": 2062,
      "Denken": 2063,
      "Ist": 2064,
      "tigen": 2065,
      "anten": 2066,
      "elig": 2067,
      "rom": 2068,
      "Mikro": 2069,
      "par": 2070,
      "rum": 2071,
      "stet": 2072,
      "gleiche": 2073,
      "einfl": 2074,
      "solche": 2075,
      "iver": 2076,
      "schick": 2077,
      "plan": 2078,
      "sph": 2079,
      "ational": 2080,
      "rieden": 2081,
      "antwort": 2082,
      "iziert": 2083,
      "treten": 2084,
      "Möglichkeiten": 2085,
      "Typ": 2086,
      "gesetzt": 2087,
      "ations": 2088,
      "erstaun": 2089,
      "Verein": 2090,
      "direkt": 2091,
      "Ster": 2092,
      "druck": 2093,
      "fel": 2094,
      "eigene": 2095,
      "Grunde": 2096,
      "spiele": 2097,
      "Publikum": 2098,
      "Öl": 2099,
      "ritte": 2100,
      "hervor": 2101,
      "Team": 2102,
      "falsch": 2103,
      "erv": 2104,
      "absol": 2105,
      "worden": 2106,
      "Lassen": 2107,
      "Tran": 2108,
      "zogen": 2109,
      "itze": 2110,
      "behand": 2111,
      "York": 2112,
      "kaufen": 2113,
      "wesen": 2114,
      "ersch": 2115,
      "ächst": 2116,
      "antwor": 2117,
      "fragte": 2118,
      "Sk": 2119,
      "geführt": 2120,
      "rech": 2121,
      "Gedanken": 2122,
      "jedoch": 2123,
      "Polit": 2124,
      "ib": 2125,
      "gefühl": 2126,
      "igten": 2127,
      "Unterschied": 2128,
      "Haupt": 2129,
      "ände": 2130,
      "anderer": 2131,
      "damals": 2132,
      "izieren": 2133,
      "Boden": 2134,
      "Modell": 2135,
      "ager": 2136,
      "wären": 2137,
      "Em": 2138,
      "Hilfe": 2139,
      "Wä": 2140,
      "ala": 2141,
      "trä": 2142,
      "sichtlich": 2143,
      "einzu": 2144,
      "achtet": 2145,
      "weisen": 2146,
      "obwohl": 2147,
      "kontro": 2148,
      "Elekt": 2149,
      "Go": 2150,
      "ient": 2151,
      "schnitt": 2152,
      "Job": 2153,
      "err": 2154,
      "Sek": 2155,
      "Kü": 2156,
      "bas": 2157,
      "entscheiden": 2158,
      "Namen": 2159,
      "völlig": 2160,
      "inne": 2161,
      "verbesser": 2162,
      "cker": 2163,
      "Thema": 2164,
      "Staaten": 2165,
      "ötzlich": 2166,
      "Fort": 2167,
      "lungs": 2168,
      "enden": 2169,
      "niemand": 2170,
      "Ho": 2171,
      "liebe": 2172,
      "innt": 2173,
      "Woche": 2174,
      "Ru": 2175,
      "Wand": 2176,
      "licht": 2177,
      "erlau": 2178,
      "tief": 2179,
      "gro": 2180,
      "line": 2181,
      "elte": 2182,
      "Kranken": 2183,
      "Komp": 2184,
      "ve": 2185,
      "wicht": 2186,
      "ucht": 2187,
      "iven": 2188,
      "selben": 2189,
      "Kat": 2190,
      "besteht": 2191,
      "komplet": 2192,
      "entfern": 2193,
      "gelern": 2194,
      "ologien": 2195,
      "ysteme": 2196,
      "größte": 2197,
      "Tage": 2198,
      "krank": 2199,
      "pe": 2200,
      "aren": 2201,
      "lanzen": 2202,
      "abhäng": 2203,
      "spro": 2204,
      "genauso": 2205,
      "Monate": 2206,
      "Viele": 2207,
      "Zahl": 2208,
      "sollen": 2209,
      "ikaner": 2210,
      "trotz": 2211,
      "Oze": 2212,
      "Neur": 2213,
      "betrachten": 2214,
      "wann": 2215,
      "funktionieren": 2216,
      "fliegen": 2217,
      "cen": 2218,
      "Liebe": 2219,
      "schlecht": 2220,
      "ograf": 2221,
      "Bewegung": 2222,
      "bung": 2223,
      "scht": 2224,
      "Lösung": 2225,
      "Nahr": 2226,
      "zuvor": 2227,
      "Erfolg": 2228,
      "gebung": 2229,
      "Kont": 2230,
      "größten": 2231,
      "yn": 2232,
      "Labor": 2233,
      "Kraft": 2234,
      "Zellen": 2235,
      "Wahl": 2236,
      "hil": 2237,
      "werfen": 2238,
      "opp": 2239,
      "persön": 2240,
      "Medik": 2241,
      "stär": 2242,
      "ament": 2243,
      "agieren": 2244,
      "erstör": 2245,
      "CA": 2246,
      "Ländern": 2247,
      "Fern": 2248,
      "drau": 2249,
      "zü": 2250,
      "sehe": 2251,
      "schwierig": 2252,
      "win": 2253,
      "größer": 2254,
      "lossen": 2255,
      "ifft": 2256,
      "urs": 2257,
      "osit": 2258,
      "komplex": 2259,
      "Tats": 2260,
      "vis": 2261,
      "schließen": 2262,
      "Test": 2263,
      "sieben": 2264,
      "Autos": 2265,
      "stark": 2266,
      "nov": 2267,
      "verbunden": 2268,
      "Gol": 2269,
      "Mil": 2270,
      "ca": 2271,
      "Versuch": 2272,
      "seln": 2273,
      "Gemeinschaft": 2274,
      "fas": 2275,
      "benö": 2276,
      "Familien": 2277,
      "Archite": 2278,
      "Innov": 2279,
      "Programm": 2280,
      "Heute": 2281,
      "Ihren": 2282,
      "unseres": 2283,
      "zweite": 2284,
      "kosten": 2285,
      "gelernt": 2286,
      "kor": 2287,
      "kraft": 2288,
      "med": 2289,
      "Engl": 2290,
      "samkeit": 2291,
      "Wissenschaftler": 2292,
      "rakt": 2293,
      "Unsere": 2294,
      "els": 2295,
      "weder": 2296,
      "gewesen": 2297,
      "telle": 2298,
      "Sehen": 2299,
      "telligen": 2300,
      "Vir": 2301,
      "Fähigkeit": 2302,
      "ünstler": 2303,
      "welches": 2304,
      "Hoff": 2305,
      "setzt": 2306,
      "bitte": 2307,
      "ged": 2308,
      "wasser": 2309,
      "herauszu": 2310,
      "Eis": 2311,
      "Tr": 2312,
      "mä": 2313,
      "stie": 2314,
      "Stand": 2315,
      "stimmt": 2316,
      "schätz": 2317,
      "geboren": 2318,
      "Jeder": 2319,
      "Wert": 2320,
      "messen": 2321,
      "spekt": 2322,
      "glücklich": 2323,
      "berfläche": 2324,
      "mü": 2325,
      "jekte": 2326,
      "echt": 2327,
      "versch": 2328,
      "Blut": 2329,
      "90": 2330,
      "Do": 2331,
      "schwar": 2332,
      "ware": 2333,
      "Ander": 2334,
      "inzip": 2335,
      "draußen": 2336,
      "ond": 2337,
      "beeinfl": 2338,
      "zeuge": 2339,
      "Klima": 2340,
      "atten": 2341,
      "fluss": 2342,
      "Studenten": 2343,
      "Bru": 2344,
      "Is": 2345,
      "Är": 2346,
      "Alter": 2347,
      "erinnern": 2348,
      "Muster": 2349,
      "Et": 2350,
      "hast": 2351,
      "to": 2352,
      "legt": 2353,
      "Bedeut": 2354,
      "prochen": 2355,
      "sprach": 2356,
      "25": 2357,
      "Natürlich": 2358,
      "Europ": 2359,
      "iko": 2360,
      "ielle": 2361,
      "ikal": 2362,
      "Medien": 2363,
      "Bürger": 2364,
      "völkerung": 2365,
      "buch": 2366,
      "ille": 2367,
      "holen": 2368,
      "Char": 2369,
      "Alles": 2370,
      "Hin": 2371,
      "lagen": 2372,
      "erschaffen": 2373,
      "imp": 2374,
      "Metho": 2375,
      "gliche": 2376,
      "elbe": 2377,
      "daten": 2378,
      "Eben": 2379,
      "tag": 2380,
      "länger": 2381,
      "Führ": 2382,
      "Gra": 2383,
      "rän": 2384,
      "tö": 2385,
      "Verbindung": 2386,
      "az": 2387,
      "tat": 2388,
      "Alle": 2389,
      "Größ": 2390,
      "Technologien": 2391,
      "beeinflus": 2392,
      "aussehen": 2393,
      "Ozean": 2394,
      "Gut": 2395,
      "schrei": 2396,
      "Wach": 2397,
      "ity": 2398,
      "Technik": 2399,
      "gegenüber": 2400,
      "erklären": 2401,
      "fäl": 2402,
      "hne": 2403,
      "erfolg": 2404,
      "stum": 2405,
      "Schritt": 2406,
      "Recht": 2407,
      "zeige": 2408,
      "Reihe": 2409,
      "Jahrhundert": 2410,
      "Kontro": 2411,
      "passen": 2412,
      "konzentr": 2413,
      "passieren": 2414,
      "Ra": 2415,
      "toll": 2416,
      "verschw": 2417,
      "rop": 2418,
      "geworden": 2419,
      "weis": 2420,
      "end": 2421,
      "schu": 2422,
      "Platz": 2423,
      "Wahrheit": 2424,
      "Tatsache": 2425,
      "unk": 2426,
      "spricht": 2427,
      "Blick": 2428,
      "jemals": 2429,
      "mache": 2430,
      "sonst": 2431,
      "gewalt": 2432,
      "Ris": 2433,
      "brachte": 2434,
      "daraus": 2435,
      "rift": 2436,
      "Richtung": 2437,
      "bilden": 2438,
      "Zent": 2439,
      "bist": 2440,
      "för": 2441,
      "gesprochen": 2442,
      "Forschung": 2443,
      "Mag": 2444,
      "Tele": 2445,
      "gingen": 2446,
      "moder": 2447,
      "tage": 2448,
      "übr": 2449,
      "gessen": 2450,
      "Hei": 2451,
      "schrieb": 2452,
      "organis": 2453,
      "verbin": 2454,
      "neben": 2455,
      "zellen": 2456,
      "gezeigt": 2457,
      "miteinander": 2458,
      "unterstütz": 2459,
      "ividu": 2460,
      "oral": 2461,
      "olz": 2462,
      "Anzahl": 2463,
      "möchten": 2464,
      "ativen": 2465,
      "Ju": 2466,
      "bewe": 2467,
      "gesp": 2468,
      "kleines": 2469,
      "phys": 2470,
      "70": 2471,
      "Kamer": 2472,
      "deshalb": 2473,
      "hnung": 2474,
      "trag": 2475,
      "Vortrag": 2476,
      "Krankheit": 2477,
      "stre": 2478,
      "ese": 2479,
      "nachdem": 2480,
      "verloren": 2481,
      "Tatsächlich": 2482,
      "emp": 2483,
      "plötzlich": 2484,
      "stelle": 2485,
      "struktur": 2486,
      "schul": 2487,
      "beginnt": 2488,
      "denkt": 2489,
      "teilt": 2490,
      "anfangen": 2491,
      "alte": 2492,
      "örter": 2493,
      "aktiv": 2494,
      "Mot": 2495,
      "fühle": 2496,
      "Einige": 2497,
      "Genau": 2498,
      "Fuß": 2499,
      "aß": 2500,
      "ehr": 2501,
      "iste": 2502,
      "ienen": 2503,
      "beschäft": 2504,
      "itäten": 2505,
      "bekannt": 2506,
      "Situation": 2507,
      "Häl": 2508,
      "digen": 2509,
      "ennen": 2510,
      "perfe": 2511,
      "Aben": 2512,
      "Sicht": 2513,
      "sofort": 2514,
      "bekommt": 2515,
      "Besch": 2516,
      "kontroll": 2517,
      "sitzen": 2518,
      "sour": 2519,
      "verwand": 2520,
      "Aufgabe": 2521,
      "danach": 2522,
      "ance": 2523,
      "beste": 2524,
      "Schwe": 2525,
      "Umgebung": 2526,
      "Stimme": 2527,
      "hinaus": 2528,
      "Gewalt": 2529,
      "ator": 2530,
      "Bildung": 2531,
      "genie": 2532,
      "Ihrem": 2533,
      "Deshalb": 2534,
      "verwendet": 2535,
      "klein": 2536,
      "sta": 2537,
      "lieb": 2538,
      "hinein": 2539,
      "11": 2540,
      "ack": 2541,
      "blau": 2542,
      "egal": 2543,
      "guten": 2544,
      "verste": 2545,
      "Studie": 2546,
      "zeitig": 2547,
      "Städte": 2548,
      "Nie": 2549,
      "Ihrer": 2550,
      "pfer": 2551,
      "Teile": 2552,
      "fig": 2553,
      "zahlen": 2554,
      "elekt": 2555,
      "hlte": 2556,
      "nachzu": 2557,
      "Reise": 2558,
      "Dro": 2559,
      "fon": 2560,
      "stab": 2561,
      "überras": 2562,
      "Foto": 2563,
      "kämp": 2564,
      "Veränderung": 2565,
      "Instit": 2566,
      "Aktiv": 2567,
      "hungen": 2568,
      "itel": 2569,
      "lauf": 2570,
      "Vorstellung": 2571,
      "genannt": 2572,
      "Rolle": 2573,
      "unkte": 2574,
      "asen": 2575,
      "geschrieben": 2576,
      "gefangen": 2577,
      "entfernt": 2578,
      "DNA": 2579,
      "fallen": 2580,
      "testen": 2581,
      "überzeu": 2582,
      "machten": 2583,
      "höher": 2584,
      "Bedeutung": 2585,
      "esent": 2586,
      "Größe": 2587,
      ".“": 2588,
      "veröffent": 2589,
      "isse": 2590,
      "ian": 2591,
      "wart": 2592,
      "Ind": 2593,
      "Während": 2594,
      "Realität": 2595,
      "fing": 2596,
      "weltweit": 2597,
      "Sonnen": 2598,
      "Demokrat": 2599,
      "Bar": 2600,
      "raus": 2601,
      "sinn": 2602,
      "jemanden": 2603,
      "Hälfte": 2604,
      "hmer": 2605,
      "tä": 2606,
      "bekam": 2607,
      "ame": 2608,
      "hielt": 2609,
      "Herausforderung": 2610,
      "Fisch": 2611,
      "Straßen": 2612,
      "sphäre": 2613,
      "Kolle": 2614,
      "gän": 2615,
      "benutzt": 2616,
      "ließen": 2617,
      "Entwicklungs": 2618,
      "Mathemat": 2619,
      "kn": 2620,
      "nachdenken": 2621,
      "niemals": 2622,
      "soziale": 2623,
      "Bel": 2624,
      "Preis": 2625,
      "hoffe": 2626,
      "Prinzip": 2627,
      "App": 2628,
      "la": 2629,
      "eister": 2630,
      "Entscheidungen": 2631,
      "Maschine": 2632,
      "Kil": 2633,
      "Tür": 2634,
      "iten": 2635,
      "gekommen": 2636,
      "Prof": 2637,
      "Amerika": 2638,
      "th": 2639,
      "zi": 2640,
      "anal": 2641,
      "ossen": 2642,
      "näher": 2643,
      "ore": 2644,
      "verrück": 2645,
      "ime": 2646,
      "beide": 2647,
      "geschie": 2648,
      "voller": 2649,
      "Meinung": 2650,
      "urt": 2651,
      "Schü": 2652,
      "Erd": 2653,
      "mäß": 2654,
      "Sau": 2655,
      "bein": 2656,
      "ub": 2657,
      "ierungen": 2658,
      "ützen": 2659,
      "Chem": 2660,
      "fassen": 2661,
      "zutage": 2662,
      "isst": 2663,
      "Sc": 2664,
      "erreicht": 2665,
      "ichtet": 2666,
      "tex": 2667,
      "imens": 2668,
      "met": 2669,
      "gebe": 2670,
      "ktor": 2671,
      "allein": 2672,
      "ierend": 2673,
      "hinzu": 2674,
      "Information": 2675,
      "Geist": 2676,
      "frage": 2677,
      "ließ": 2678,
      "sahen": 2679,
      "gefr": 2680,
      "komplett": 2681,
      "Druck": 2682,
      "ace": 2683,
      "eller": 2684,
      "Beg": 2685,
      "Meter": 2686,
      "extre": 2687,
      "präsent": 2688,
      "erfolgreich": 2689,
      "abzu": 2690,
      "ritten": 2691,
      "bestimmt": 2692,
      "res": 2693,
      "reck": 2694,
      "Phys": 2695,
      "Medizin": 2696,
      "Fehler": 2697,
      "absolut": 2698,
      "Tat": 2699,
      "gten": 2700,
      "chter": 2701,
      "istan": 2702,
      "Stat": 2703,
      "ffiz": 2704,
      "wenden": 2705,
      "ären": 2706,
      "Mitte": 2707,
      "Zahlen": 2708,
      "fant": 2709,
      "tran": 2710,
      "steigen": 2711,
      "Generation": 2712,
      "Nur": 2713,
      "mäch": 2714,
      "aufge": 2715,
      "Straße": 2716,
      "dachten": 2717,
      "Schauen": 2718,
      "daher": 2719,
      "Rad": 2720,
      "zerstör": 2721,
      "stellten": 2722,
      "Firma": 2723,
      "Dor": 2724,
      "Ding": 2725,
      "Zeu": 2726,
      "kr": 2727,
      "lage": 2728,
      "tot": 2729,
      "deten": 2730,
      "Nachrichten": 2731,
      "Sonne": 2732,
      "Kosten": 2733,
      "medizin": 2734,
      "Dr": 2735,
      "ister": 2736,
      "komme": 2737,
      "Papier": 2738,
      "Bakter": 2739,
      "Kal": 2740,
      "Künstler": 2741,
      "lekü": 2742,
      "Einz": 2743,
      "jenigen": 2744,
      "Har": 2745,
      "finde": 2746,
      "Soft": 2747,
      "schneller": 2748,
      "läuft": 2749,
      "Von": 2750,
      "ct": 2751,
      "ologen": 2752,
      "Schn": 2753,
      "interessiert": 2754,
      "bildung": 2755,
      "Beziehung": 2756,
      "stei": 2757,
      "Bewusst": 2758,
      "Mitgefühl": 2759,
      "Karte": 2760,
      "zunehmen": 2761,
      "erfor": 2762,
      "eind": 2763,
      "Strom": 2764,
      "Bücher": 2765,
      "OK": 2766,
      "har": 2767,
      "posit": 2768,
      "ven": 2769,
      "wind": 2770,
      "stück": 2771,
      "bewer": 2772,
      "Gesundheits": 2773,
      "uf": 2774,
      "enor": 2775,
      "troffen": 2776,
      "Maß": 2777,
      "Vereinigten": 2778,
      "Hinter": 2779,
      "wider": 2780,
      "erkann": 2781,
      "Indu": 2782,
      "Revolution": 2783,
      "Fähigkeiten": 2784,
      "Ergebnis": 2785,
      "Goog": 2786,
      "Such": 2787,
      "kür": 2788,
      "oß": 2789,
      "zte": 2790,
      "gearbeitet": 2791,
      "defin": 2792,
      "berü": 2793,
      "trauen": 2794,
      "Experiment": 2795,
      "bewegt": 2796,
      "geschieht": 2797,
      "Sa": 2798,
      "Tex": 2799,
      "ummer": 2800,
      "halte": 2801,
      "früher": 2802,
      "herauszufinden": 2803,
      "Hoch": 2804,
      "Oberfläche": 2805,
      "nein": 2806,
      "Gruppen": 2807,
      "Männ": 2808,
      "gie": 2809,
      "bedeuten": 2810,
      "Kommun": 2811,
      "lag": 2812,
      "began": 2813,
      "ernst": 2814,
      "neues": 2815,
      "Super": 2816,
      "faszin": 2817,
      "Zeich": 2818,
      "lok": 2819,
      "befinden": 2820,
      "nennt": 2821,
      "schlag": 2822,
      "irgendwo": 2823,
      "mel": 2824,
      "habt": 2825,
      "älter": 2826,
      "Ka": 2827,
      "indungen": 2828,
      "schieden": 2829,
      "kop": 2830,
      "Jahrzehn": 2831,
      "Sex": 2832,
      "Sym": 2833,
      "gesamte": 2834,
      "Europa": 2835,
      "Tod": 2836,
      "itzt": 2837,
      "Ged": 2838,
      "sozialen": 2839,
      "Psych": 2840,
      "nehmer": 2841,
      "darf": 2842,
      "Reaktion": 2843,
      "einfache": 2844,
      "ix": 2845,
      "ari": 2846,
      "Produkt": 2847,
      "Hoffnung": 2848,
      "ift": 2849,
      "krei": 2850,
      "äume": 2851,
      "Universität": 2852,
      "ähnlich": 2853,
      "begannen": 2854,
      "Hel": 2855,
      "verurs": 2856,
      "raten": 2857,
      "Seiten": 2858,
      "vent": 2859,
      "wirkungen": 2860,
      "Politik": 2861,
      "Fortsch": 2862,
      "!\"": 2863,
      "Auch": 2864,
      "Kr": 2865,
      "hy": 2866,
      "iegel": 2867,
      "sex": 2868,
      "Software": 2869,
      "Bewusstsein": 2870,
      "Evolution": 2871,
      "Not": 2872,
      "glie": 2873,
      "lust": 2874,
      "igung": 2875,
      "ckte": 2876,
      "Behand": 2877,
      "wäl": 2878,
      "tler": 2879,
      "großer": 2880,
      "Webs": 2881,
      "wichtiger": 2882,
      "Gel": 2883,
      "Glau": 2884,
      "Tro": 2885,
      "kompl": 2886,
      "Arm": 2887,
      "Wieder": 2888,
      "leist": 2889,
      "dienen": 2890,
      "führte": 2891,
      "Studien": 2892,
      "Google": 2893,
      "les": 2894,
      "ziert": 2895,
      "Hir": 2896,
      "Wind": 2897,
      "mon": 2898,
      "zuerst": 2899,
      "oss": 2900,
      "Pflanzen": 2901,
      "merksamkeit": 2902,
      "stu": 2903,
      "anstatt": 2904,
      "auber": 2905,
      "ffent": 2906,
      "Schön": 2907,
      "üssel": 2908,
      "Schulen": 2909,
      "Uhr": 2910,
      "mod": 2911,
      "pfen": 2912,
      "uelle": 2913,
      "schaut": 2914,
      "gegangen": 2915,
      "ikation": 2916,
      "igens": 2917,
      "Aufmerksamkeit": 2918,
      "Wörter": 2919,
      "lungen": 2920,
      "ue": 2921,
      "mente": 2922,
      "formen": 2923,
      "Leiden": 2924,
      "junge": 2925,
      "rein": 2926,
      "brit": 2927,
      "Bevölkerung": 2928,
      "ikel": 2929,
      "gru": 2930,
      "bestimmten": 2931,
      "wichtige": 2932,
      "Frü": 2933,
      "blich": 2934,
      "kultur": 2935,
      "obil": 2936,
      "gleichzeitig": 2937,
      "passierte": 2938,
      "tausende": 2939,
      "500": 2940,
      "intern": 2941,
      "invest": 2942,
      "ana": 2943,
      "uchs": 2944,
      "ächen": 2945,
      "Dorf": 2946,
      "Wür": 2947,
      "dition": 2948,
      "fft": 2949,
      "selt": 2950,
      "aler": 2951,
      "Ressour": 2952,
      "Funktion": 2953,
      "vorbei": 2954,
      "Vers": 2955,
      "hnt": 2956,
      "wussten": 2957,
      "Kn": 2958,
      "volle": 2959,
      "erwä": 2960,
      "stud": 2961,
      "ette": 2962,
      "nete": 2963,
      "Regeln": 2964,
      "arbeitete": 2965,
      "nahe": 2966,
      "gedacht": 2967,
      "HI": 2968,
      "Himm": 2969,
      "fach": 2970,
      "kün": 2971,
      "natür": 2972,
      "stes": 2973,
      "ama": 2974,
      "gere": 2975,
      "Zugang": 2976,
      "schlagen": 2977,
      "Demokratie": 2978,
      "kauf": 2979,
      "indest": 2980,
      "zeichnet": 2981,
      "beobachten": 2982,
      "Sen": 2983,
      "Will": 2984,
      "verlassen": 2985,
      "Jahrhunder": 2986,
      "Regen": 2987,
      "altung": 2988,
      "drücken": 2989,
      "Spezie": 2990,
      "Medikamen": 2991,
      "Terr": 2992,
      "feld": 2993,
      "mann": 2994,
      "nütz": 2995,
      "verfü": 2996,
      "Können": 2997,
      "16": 2998,
      "Ton": 2999,
      "go": 3000,
      "inge": 3001,
      "ansehen": 3002,
      "beweg": 3003,
      "wech": 3004,
      "opt": 3005,
      "sucht": 3006,
      "Molekü": 3007,
      "versuchte": 3008,
      "bleibt": 3009,
      "produzieren": 3010,
      "14": 3011,
      "Hig": 3012,
      "prakt": 3013,
      "ologische": 3014,
      "ober": 3015,
      "spre": 3016,
      "rechts": 3017,
      "krie": 3018,
      "itter": 3019,
      "umm": 3020,
      "Armut": 3021,
      "Einfluss": 3022,
      "Orte": 3023,
      "Monaten": 3024,
      "Amerikaner": 3025,
      "Folgen": 3026,
      "sammeln": 3027,
      "Bill": 3028,
      "Baum": 3029,
      "hang": 3030,
      "morgen": 3031,
      "Mehr": 3032,
      "elegen": 3033,
      "Phil": 3034,
      "Vol": 3035,
      "inspir": 3036,
      "merz": 3037,
      "Kontrolle": 3038,
      "Hü": 3039,
      "Lauf": 3040,
      "ines": 3041,
      "abge": 3042,
      "Konzept": 3043,
      "kämpfen": 3044,
      "fu": 3045,
      "fertig": 3046,
      "Bus": 3047,
      "Morgen": 3048,
      "stru": 3049,
      "wählen": 3050,
      "fällt": 3051,
      "John": 3052,
      "Bot": 3053,
      "oso": 3054,
      "prü": 3055,
      "verm": 3056,
      "Gesetz": 3057,
      "Sohn": 3058,
      "Theorie": 3059,
      "fantast": 3060,
      "verstanden": 3061,
      "geschlossen": 3062,
      "ständnis": 3063,
      "bessere": 3064,
      "richtige": 3065,
      "offensichtlich": 3066,
      "Car": 3067,
      "Trä": 3068,
      "stern": 3069,
      "reibt": 3070,
      "Eines": 3071,
      "ivil": 3072,
      "großes": 3073,
      "apan": 3074,
      "hörte": 3075,
      "richtigen": 3076,
      "Menschheit": 3077,
      "verbessern": 3078,
      "brechen": 3079,
      "Erinner": 3080,
      "zeichnen": 3081,
      "Poliz": 3082,
      "stieg": 3083,
      "dert": 3084,
      "igner": 3085,
      "herap": 3086,
      "Nachbar": 3087,
      "handelt": 3088,
      "Gerät": 3089,
      "Schüler": 3090,
      "ile": 3091,
      "vergessen": 3092,
      "Firmen": 3093,
      "On": 3094,
      "Stelle": 3095,
      "bat": 3096,
      "kul": 3097,
      "einzelne": 3098,
      "Miss": 3099,
      "Tal": 3100,
      "omat": 3101,
      "gewinnen": 3102,
      "Daher": 3103,
      "schluss": 3104,
      "Wohl": 3105,
      "Krankheiten": 3106,
      "Terror": 3107,
      "CO": 3108,
      "gnis": 3109,
      "Vergangen": 3110,
      "quenz": 3111,
      "windigkeit": 3112,
      "ull": 3113,
      "ihres": 3114,
      "bemerken": 3115,
      "ed": 3116,
      "sum": 3117,
      "stein": 3118,
      "versuche": 3119,
      "Gala": 3120,
      "sweise": 3121,
      "kommun": 3122,
      "Beispiele": 3123,
      "rise": 3124,
      "199": 3125,
      "Entscheidung": 3126,
      "ka": 3127,
      "alien": 3128,
      "Grenzen": 3129,
      "begr": 3130,
      "Gebiet": 3131,
      "links": 3132,
      "inken": 3133,
      "schö": 3134,
      "sport": 3135,
      "Arbei": 3136,
      "Chris": 3137,
      "erzeugen": 3138,
      "Innovation": 3139,
      "HIV": 3140,
      "Relig": 3141,
      "Vö": 3142,
      "deck": 3143,
      "kannst": 3144,
      "Spaß": 3145,
      "Orten": 3146,
      "verlieren": 3147,
      "traf": 3148,
      "Tagen": 3149,
      "psych": 3150,
      "schir": 3151,
      "schreck": 3152,
      "Stamm": 3153,
      "app": 3154,
      "Vergangenheit": 3155,
      "Leist": 3156,
      "ail": 3157,
      "ov": 3158,
      "anschauen": 3159,
      "erzählt": 3160,
      "Kä": 3161,
      "Nachricht": 3162,
      "danke": 3163,
      "Personen": 3164,
      "retten": 3165,
      "Sekunden": 3166,
      "erlaubt": 3167,
      "Spezies": 3168,
      "Galax": 3169,
      "Mü": 3170,
      "Nor": 3171,
      "hau": 3172,
      "best": 3173,
      "zumindest": 3174,
      "Ord": 3175,
      "Ebene": 3176,
      "Sign": 3177,
      "deine": 3178,
      "unger": 3179,
      "aussieht": 3180,
      "kurze": 3181,
      "Dien": 3182,
      "Feuer": 3183,
      "itär": 3184,
      "17": 3185,
      "Kern": 3186,
      "falt": 3187,
      "herr": 3188,
      "Park": 3189,
      "Ker": 3190,
      "ball": 3191,
      "effekt": 3192,
      "moral": 3193,
      "not": 3194,
      "of": 3195,
      "gener": 3196,
      "nachzudenken": 3197,
      "Bakterien": 3198,
      "lam": 3199,
      "inden": 3200,
      "auchen": 3201,
      "Worte": 3202,
      "Baby": 3203,
      "Wirklichkeit": 3204,
      "Som": 3205,
      "abel": 3206,
      "warten": 3207,
      "besuch": 3208,
      "Konfl": 3209,
      "Objekt": 3210,
      "Zeug": 3211,
      "Ku": 3212,
      "ina": 3213,
      "manche": 3214,
      "Pa": 3215,
      "ow": 3216,
      "öst": 3217,
      "gesamten": 3218,
      "Ergebnisse": 3219,
      "Geschäfts": 3220,
      "trotzdem": 3221,
      "Mathematik": 3222,
      "Fran": 3223,
      "Li": 3224,
      "Th": 3225,
      "Wel": 3226,
      "ierter": 3227,
      "etze": 3228,
      "räfte": 3229,
      "bestimmte": 3230,
      "schicken": 3231,
      "abhängig": 3232,
      "extrem": 3233,
      "Ben": 3234,
      "Tre": 3235,
      "hü": 3236,
      "keiner": 3237,
      "annen": 3238,
      "Verantwort": 3239,
      "geschehen": 3240,
      "niedr": 3241,
      "Bas": 3242,
      "My": 3243,
      "Nä": 3244,
      "kaum": 3245,
      "wirken": 3246,
      "sodass": 3247,
      "redu": 3248,
      "nehm": 3249,
      "solchen": 3250,
      "Ressourcen": 3251,
      "Det": 3252,
      "Hände": 3253,
      "Ir": 3254,
      "kos": 3255,
      "erfahren": 3256,
      "press": 3257,
      "Meeres": 3258,
      "Telefon": 3259,
      "Sand": 3260,
      "winz": 3261,
      "endlich": 3262,
      "immen": 3263,
      "spielt": 3264,
      "Herr": 3265,
      "interessante": 3266,
      "Frieden": 3267,
      "Nerv": 3268,
      "Vis": 3269,
      "umzu": 3270,
      "ollen": 3271,
      "prob": 3272,
      "zeigte": 3273,
      "tigt": 3274,
      "Kollegen": 3275,
      "seltsam": 3276,
      "Häu": 3277,
      "schung": 3278,
      "ath": 3279,
      "Fr": 3280,
      "jungen": 3281,
      "Invest": 3282,
      "ingungen": 3283,
      "Monat": 3284,
      "licherweise": 3285,
      "entdecken": 3286,
      "Partner": 3287,
      "heutzutage": 3288,
      "ds": 3289,
      "erhö": 3290,
      "nenne": 3291,
      "Gefän": 3292,
      "wendung": 3293,
      "maß": 3294,
      "utzung": 3295,
      "Diag": 3296,
      "gefragt": 3297,
      "ons": 3298,
      "arbeite": 3299,
      "Arbeits": 3300,
      "dreht": 3301,
      "Präsi": 3302,
      "fil": 3303,
      "gor": 3304,
      "rund": 3305,
      "runter": 3306,
      "scheinen": 3307,
      "amme": 3308,
      "ierende": 3309,
      "glaub": 3310,
      "ferenz": 3311,
      "Regierungen": 3312,
      "Chance": 3313,
      "bieten": 3314,
      "hilft": 3315,
      "verbinden": 3316,
      "Nord": 3317,
      "Vo": 3318,
      "mung": 3319,
      "zimmer": 3320,
      "unmöglich": 3321,
      "abr": 3322,
      "aufgrund": 3323,
      "heben": 3324,
      "Landes": 3325,
      "öffnen": 3326,
      "globalen": 3327,
      "riesige": 3328,
      "amerikanischen": 3329,
      "anzen": 3330,
      "eiden": 3331,
      "werke": 3332,
      "Jahres": 3333,
      "Gespr": 3334,
      "rief": 3335,
      "untersuchen": 3336,
      "leisten": 3337,
      "einzelnen": 3338,
      "Kampf": 3339,
      "Himmel": 3340,
      "National": 3341,
      "dopp": 3342,
      "mot": 3343,
      "vir": 3344,
      "seits": 3345,
      "schlechte": 3346,
      "ograph": 3347,
      "Methode": 3348,
      "Glauben": 3349,
      "13": 3350,
      "Bro": 3351,
      "Oper": 3352,
      "strie": 3353,
      "genet": 3354,
      "osition": 3355,
      "hängt": 3356,
      "Linie": 3357,
      "ometer": 3358,
      "dauer": 3359,
      "Maschinen": 3360,
      "Pe": 3361,
      "taten": 3362,
      "erk": 3363,
      "Bezug": 3364,
      "peratur": 3365,
      "trifft": 3366,
      "digit": 3367,
      "anter": 3368,
      "Stre": 3369,
      "neun": 3370,
      "Arzt": 3371,
      "Systeme": 3372,
      "lehr": 3373,
      "ationalen": 3374,
      "Einer": 3375,
      "ziell": 3376,
      "stände": 3377,
      "Kohlen": 3378,
      "Nahrung": 3379,
      "Wachstum": 3380,
      "passt": 3381,
      "itte": 3382,
      "ennt": 3383,
      "programm": 3384,
      "erzählte": 3385,
      "mitteln": 3386,
      "Institut": 3387,
      "Haut": 3388,
      "Mich": 3389,
      "Sinne": 3390,
      "grü": 3391,
      "ghan": 3392,
      "nungen": 3393,
      "rig": 3394,
      "stecken": 3395,
      "mögl": 3396,
      "spez": 3397,
      "großartige": 3398,
      "Freiheit": 3399,
      "Krankenhaus": 3400,
      "Gelegen": 3401,
      "Vier": 3402,
      "äte": 3403,
      "ücht": 3404,
      "entschieden": 3405,
      "Außer": 3406,
      "platz": 3407,
      "Tra": 3408,
      "greifen": 3409,
      "uell": 3410,
      "zufä": 3411,
      "vert": 3412,
      "Regel": 3413,
      "oper": 3414,
      "ätze": 3415,
      "großartig": 3416,
      "Ordnung": 3417,
      "möglicht": 3418,
      "jahr": 3419,
      "orben": 3420,
      "Erwachsen": 3421,
      "Gene": 3422,
      "Fotos": 3423,
      "Berg": 3424,
      "km": 3425,
      "kap": 3426,
      "altet": 3427,
      "sowohl": 3428,
      "sprün": 3429,
      "herstellen": 3430,
      "Einkommen": 3431,
      "ologischen": 3432,
      "Auswirkungen": 3433,
      "herausfinden": 3434,
      "belie": 3435,
      "öffentlichen": 3436,
      "Netzwerk": 3437,
      "Damit": 3438,
      "Tie": 3439,
      "rel": 3440,
      "ermöglicht": 3441,
      "zieht": 3442,
      "arbeiter": 3443,
      "Bienen": 3444,
      "far": 3445,
      "entdeckt": 3446,
      "Architektur": 3447,
      "Zivil": 3448,
      "bestehen": 3449,
      "Fluss": 3450,
      "Finger": 3451,
      "Amei": 3452,
      "einge": 3453,
      "spür": 3454,
      "Ingenie": 3455,
      "zweiten": 3456,
      "Million": 3457,
      "folgt": 3458,
      "ativität": 3459,
      "Industrie": 3460,
      "Af": 3461,
      "Lö": 3462,
      "Inf": 3463,
      "dadurch": 3464,
      "ationale": 3465,
      "Geräu": 3466,
      "höch": 3467,
      "schöne": 3468,
      "stoffe": 3469,
      "König": 3470,
      "desto": 3471,
      "Beziehungen": 3472,
      "Höhe": 3473,
      "Nummer": 3474,
      "the": 3475,
      "wün": 3476,
      "stag": 3477,
      "schützen": 3478,
      "Entdeck": 3479,
      "Formen": 3480,
      "Wohn": 3481,
      "normalerweise": 3482,
      "Organisation": 3483,
      "Ehe": 3484,
      "Fä": 3485,
      "Haben": 3486,
      "diejenigen": 3487,
      "astrop": 3488,
      "einzig": 3489,
      "dio": 3490,
      "grundlegen": 3491,
      "übrigens": 3492,
      "masch": 3493,
      "nann": 3494,
      "äss": 3495,
      "arch": 3496,
      "iti": 3497,
      "urn": 3498,
      "einfachen": 3499,
      "geschaffen": 3500,
      "Geburt": 3501,
      "tradition": 3502,
      "Drogen": 3503,
      "gebil": 3504,
      "folge": 3505,
      "Gehirns": 3506,
      "Büro": 3507,
      "Brust": 3508,
      "miss": 3509,
      "asche": 3510,
      "Geheim": 3511,
      "außerhalb": 3512,
      "lose": 3513,
      "drehen": 3514,
      "Ärzte": 3515,
      "Fakt": 3516,
      "Noch": 3517,
      "iffen": 3518,
      "ry": 3519,
      "befindet": 3520,
      "vern": 3521,
      "rate": 3522,
      "herunter": 3523,
      "Anal": 3524,
      "rufen": 3525,
      "schlä": 3526,
      "welcher": 3527,
      "fühlte": 3528,
      "CO2": 3529,
      "Gi": 3530,
      "Ler": 3531,
      "iter": 3532,
      "rochen": 3533,
      "schafft": 3534,
      "ivat": 3535,
      "üss": 3536,
      "maßen": 3537,
      "Schlüssel": 3538,
      "Hy": 3539,
      "Jungen": 3540,
      "Ser": 3541,
      "Wesen": 3542,
      "ente": 3543,
      "stä": 3544,
      "ustrie": 3545,
      "Bühne": 3546,
      "ynam": 3547,
      "Ach": 3548,
      "La": 3549,
      "ote": 3550,
      "otion": 3551,
      "ebenso": 3552,
      "Gründe": 3553,
      "fähig": 3554,
      "Beginn": 3555,
      "Tausen": 3556,
      "ude": 3557,
      "aufre": 3558,
      "fühlt": 3559,
      "spreche": 3560,
      "Fü": 3561,
      "Liste": 3562,
      "kar": 3563,
      "aur": 3564,
      "Verständnis": 3565,
      "prof": 3566,
      "bisher": 3567,
      "schiede": 3568,
      "Liebl": 3569,
      "imension": 3570,
      "Ban": 3571,
      "nö": 3572,
      "einzigen": 3573,
      "handeln": 3574,
      "betrachtet": 3575,
      "Farbe": 3576,
      "ffizien": 3577,
      "unt": 3578,
      "isiert": 3579,
      "west": 3580,
      "stellungen": 3581,
      "Bis": 3582,
      "Punkte": 3583,
      "San": 3584,
      "hart": 3585,
      "seite": 3586,
      "erleben": 3587,
      "schte": 3588,
      "entweder": 3589,
      "Muse": 3590,
      "wärts": 3591,
      "Kamera": 3592,
      "300": 3593,
      "dritte": 3594,
      "po": 3595,
      "Manchmal": 3596,
      "Mars": 3597,
      "Quad": 3598,
      "lernte": 3599,
      "lebte": 3600,
      "Drit": 3601,
      "Disk": 3602,
      "frieden": 3603,
      "krieg": 3604,
      "uellen": 3605,
      "urg": 3606,
      "Stunde": 3607,
      "Verfü": 3608,
      "schätzen": 3609,
      "Behandlung": 3610,
      "Wunder": 3611,
      "imin": 3612,
      "spar": 3613,
      "Schrift": 3614,
      "Inse": 3615,
      "nochen": 3616,
      "Zeitpunkt": 3617,
      "leiden": 3618,
      "Designer": 3619,
      "Flugzeug": 3620,
      "ütter": 3621,
      "21": 3622,
      "Kreis": 3623,
      "Name": 3624,
      "nit": 3625,
      "gehe": 3626,
      "ürf": 3627,
      "Ern": 3628,
      "Ange": 3629,
      "ruh": 3630,
      "Süd": 3631,
      "Klimawand": 3632,
      "Individu": 3633,
      "schirm": 3634,
      "Tisch": 3635,
      "Traum": 3636,
      "ose": 3637,
      "öl": 3638,
      "ügen": 3639,
      "ies": 3640,
      "getroffen": 3641,
      "steckt": 3642,
      "icks": 3643,
      "selten": 3644,
      "Interesse": 3645,
      "Erfahrungen": 3646,
      "Hirn": 3647,
      "Medikamente": 3648,
      "pag": 3649,
      "tige": 3650,
      "typ": 3651,
      "scher": 3652,
      "dasselbe": 3653,
      "euern": 3654,
      "Ereig": 3655,
      "ellschaften": 3656,
      "leider": 3657,
      "besondere": 3658,
      "Betr": 3659,
      "erwarten": 3660,
      "Risiko": 3661,
      "unterstützen": 3662,
      "sichtig": 3663,
      "verhalten": 3664,
      "herzustellen": 3665,
      "finanz": 3666,
      "afft": 3667,
      "Lösungen": 3668,
      "Lernen": 3669,
      "Hall": 3670,
      "guter": 3671,
      "män": 3672,
      "geg": 3673,
      "mittler": 3674,
      "ulation": 3675,
      "dium": 3676,
      "Herzen": 3677,
      "früh": 3678,
      "jemandem": 3679,
      "Komplex": 3680,
      "Englisch": 3681,
      "haup": 3682,
      "Gefängnis": 3683,
      "Poten": 3684,
      "chan": 3685,
      "intelligen": 3686,
      "annt": 3687,
      "änden": 3688,
      "reise": 3689,
      "echte": 3690,
      "Artikel": 3691,
      "gutes": 3692,
      "Wege": 3693,
      "Jahrhunderts": 3694,
      "Lond": 3695,
      "Mär": 3696,
      "Än": 3697,
      "eng": 3698,
      "unsch": 3699,
      "mehrere": 3700,
      "heutigen": 3701,
      "antworten": 3702,
      "As": 3703,
      "Teilen": 3704,
      "Wol": 3705,
      "mmer": 3706,
      "behaup": 3707,
      "veränder": 3708,
      "wenige": 3709,
      "rang": 3710,
      "ption": 3711,
      "Jedes": 3712,
      "jene": 3713,
      "Dis": 3714,
      "gek": 3715,
      "bezahl": 3716,
      "ilien": 3717,
      "lebens": 3718,
      "dank": 3719,
      "Bu": 3720,
      "Ball": 3721,
      "körper": 3722,
      "riere": 3723,
      "vie": 3724,
      "Mail": 3725,
      "erinnere": 3726,
      "ID": 3727,
      "ident": 3728,
      "sowie": 3729,
      "Manche": 3730,
      "Veränderungen": 3731,
      "Cl": 3732,
      "Junge": 3733,
      "Krie": 3734,
      "Ta": 3735,
      "Zeiten": 3736,
      "ifor": 3737,
      "laden": 3738,
      "eisch": 3739,
      "aul": 3740,
      "seh": 3741,
      "barkeit": 3742,
      "Afghan": 3743,
      "Ep": 3744,
      "Japan": 3745,
      "Kol": 3746,
      "mu": 3747,
      "derung": 3748,
      "istisch": 3749,
      "roh": 3750,
      "mitten": 3751,
      "Schwar": 3752,
      "Inner": 3753,
      "ickt": 3754,
      "Zustand": 3755,
      "akzept": 3756,
      "worten": 3757,
      "vollen": 3758,
      "kenne": 3759,
      "ebenfalls": 3760,
      "verkaufen": 3761,
      "Worten": 3762,
      "tausend": 3763,
      "Charakter": 3764,
      "ehrlich": 3765,
      "elektr": 3766,
      "Einzel": 3767,
      "Sommer": 3768,
      "24": 3769,
      "Fen": 3770,
      "Ident": 3771,
      "inst": 3772,
      "ales": 3773,
      "industrie": 3774,
      "Instr": 3775,
      "Detail": 3776,
      "Grad": 3777,
      "Zw": 3778,
      "gn": 3779,
      "bert": 3780,
      "Elektr": 3781,
      "fälle": 3782,
      "staat": 3783,
      "Verantwortung": 3784,
      "Mut": 3785,
      "Phän": 3786,
      "Rat": 3787,
      "Säu": 3788,
      "Zelle": 3789,
      "dlichen": 3790,
      "krit": 3791,
      "chem": 3792,
      "eien": 3793,
      "verhin": 3794,
      "eitung": 3795,
      "Erkennt": 3796,
      "Gewe": 3797,
      "klin": 3798,
      "holt": 3799,
      "Wirtschafts": 3800,
      "Eigenschaften": 3801,
      "behandeln": 3802,
      "iforn": 3803,
      "SA": 3804,
      "Wichtig": 3805,
      "dür": 3806,
      "wesent": 3807,
      "rastruktur": 3808,
      "ierenden": 3809,
      "Projekte": 3810,
      "geschafft": 3811,
      "Werte": 3812,
      "außergewöhn": 3813,
      "Fo": 3814,
      "dein": 3815,
      "dings": 3816,
      "öse": 3817,
      "verantwort": 3818,
      "umor": 3819,
      "Erstens": 3820,
      "ziellen": 3821,
      "geschah": 3822,
      "frikan": 3823,
      "See": 3824,
      "erfunden": 3825,
      "Schönheit": 3826,
      "Version": 3827,
      "Sh": 3828,
      "oßen": 3829,
      "aschen": 3830,
      "annien": 3831,
      "nehme": 3832,
      "brauchte": 3833,
      "ährt": 3834,
      "Bio": 3835,
      "unterschiedliche": 3836,
      "Bedürf": 3837,
      "London": 3838,
      "Tem": 3839,
      "fter": 3840,
      "weite": 3841,
      "hlung": 3842,
      "Auge": 3843,
      "Strate": 3844,
      "existiert": 3845,
      "Religion": 3846,
      "teuer": 3847,
      "sern": 3848,
      "Intelligen": 3849,
      "Arme": 3850,
      "digt": 3851,
      "Biologie": 3852,
      "Ahnung": 3853,
      "Wald": 3854,
      "bill": 3855,
      "fot": 3856,
      "schutz": 3857,
      "verletz": 3858,
      "ktionen": 3859,
      "dient": 3860,
      "unglaubliche": 3861,
      "cool": 3862,
      "Kapital": 3863,
      "Männern": 3864,
      "Kommunikation": 3865,
      "Phänomen": 3866,
      "ou": 3867,
      "tegr": 3868,
      "genutzt": 3869,
      "lecht": 3870,
      "verbringen": 3871,
      "isieren": 3872,
      "Sport": 3873,
      "Region": 3874,
      "konzentrieren": 3875,
      "Drei": 3876,
      "amp": 3877,
      "Erzä": 3878,
      "Freunden": 3879,
      "kostet": 3880,
      "haltung": 3881,
      "wunderbar": 3882,
      "verrückt": 3883,
      "schönen": 3884,
      "\"-": 3885,
      "Tieren": 3886,
      "pekt": 3887,
      "zlich": 3888,
      "unkel": 3889,
      "istor": 3890,
      "sobald": 3891,
      "ielt": 3892,
      "lief": 3893,
      "gress": 3894,
      "eigenes": 3895,
      "erstoff": 3896,
      "öffnet": 3897,
      "Produkte": 3898,
      "Städten": 3899,
      "hielten": 3900,
      "häufig": 3901,
      "Nähe": 3902,
      "Infrastruktur": 3903,
      "dunk": 3904,
      "ssen": 3905,
      "fügen": 3906,
      "emotion": 3907,
      "Freude": 3908,
      "Antworten": 3909,
      "frühen": 3910,
      "Ad": 3911,
      "Massen": 3912,
      "hilfe": 3913,
      "ikt": 3914,
      "angefangen": 3915,
      "rechte": 3916,
      "wiesen": 3917,
      "Ansatz": 3918,
      "rucken": 3919,
      "Organ": 3920,
      "Westen": 3921,
      "Mark": 3922,
      "Materialien": 3923,
      "High": 3924,
      "Mir": 3925,
      "Titel": 3926,
      "mil": 3927,
      "top": 3928,
      "stadt": 3929,
      "orn": 3930,
      "ami": 3931,
      "isser": 3932,
      "ilt": 3933,
      "wählt": 3934,
      "schlimm": 3935,
      "teilung": 3936,
      "hängen": 3937,
      "Staat": 3938,
      "dauern": 3939,
      "Finanz": 3940,
      "Verfügung": 3941,
      "chines": 3942,
      "auer": 3943,
      "ierungs": 3944,
      "vermei": 3945,
      "Schutz": 3946,
      "seines": 3947,
      "glaubt": 3948,
      "Virus": 3949,
      "Text": 3950,
      "britannien": 3951,
      "Waffen": 3952,
      "ane": 3953,
      "anst": 3954,
      "aust": 3955,
      "Spitze": 3956,
      "assung": 3957,
      "Sozial": 3958,
      "Unterstütz": 3959,
      "größere": 3960,
      "Filme": 3961,
      "Verbindungen": 3962,
      "Abend": 3963,
      "notwen": 3964,
      "Dort": 3965,
      "Feld": 3966,
      "dit": 3967,
      "ursprün": 3968,
      "gesellschaft": 3969,
      "empf": 3970,
      "Nehmen": 3971,
      "Kreativität": 3972,
      "mark": 3973,
      "fängt": 3974,
      "Polizei": 3975,
      "Bäume": 3976,
      "Pal": 3977,
      "Pil": 3978,
      "Wal": 3979,
      "bol": 3980,
      "rt": 3981,
      "wichtigsten": 3982,
      "erwartet": 3983,
      "Sauerstoff": 3984,
      "urnal": 3985,
      "Fenster": 3986,
      "het": 3987,
      "iete": 3988,
      "ikas": 3989,
      "ochter": 3990,
      "Schiff": 3991,
      "Erst": 3992,
      "mechan": 3993,
      "begonnen": 3994,
      "leid": 3995,
      "Plast": 3996,
      "Atmo": 3997,
      "globale": 3998,
      "erzeugt": 3999,
      "kontrollieren": 4000,
      "Gelegenheit": 4001,
      "Wider": 4002,
      "nutz": 4003,
      "ers": 4004,
      "serv": 4005,
      "überleben": 4006,
      "entstehen": 4007,
      "änge": 4008,
      "gefä": 4009,
      "Dav": 4010,
      "digung": 4011,
      "Vielfalt": 4012,
      "Produktion": 4013,
      "Farben": 4014,
      "riesigen": 4015,
      "Knochen": 4016,
      "Opfer": 4017,
      "arm": 4018,
      "aufgenommen": 4019,
      "Vergleich": 4020,
      "Altern": 4021,
      "neuer": 4022,
      "Klasse": 4023,
      "Interess": 4024,
      "Nichts": 4025,
      "politischen": 4026,
      "erstaunlich": 4027,
      "beeinflusst": 4028,
      "Profess": 4029,
      "cy": 4030,
      "hause": 4031,
      "vel": 4032,
      "istenz": 4033,
      "bereich": 4034,
      "igte": 4035,
      "neten": 4036,
      "konom": 4037,
      "proble": 4038,
      "Ausdruck": 4039,
      "schnit": 4040,
      "dia": 4041,
      "Privat": 4042,
      "Physik": 4043,
      "Suche": 4044,
      "Leidenschaft": 4045,
      "Hunder": 4046,
      "Tu": 4047,
      "gier": 4048,
      "ippe": 4049,
      "äst": 4050,
      "online": 4051,
      "achsen": 4052,
      "vertrau": 4053,
      "Unterschiede": 4054,
      "größeren": 4055,
      "Schluss": 4056,
      "Boot": 4057,
      "bedingt": 4058,
      "acebo": 4059,
      "Statist": 4060,
      "Del": 4061,
      "Tochter": 4062,
      "Wett": 4063,
      "bü": 4064,
      "wuchs": 4065,
      "zusagen": 4066,
      "reagieren": 4067,
      "lant": 4068,
      "Geschwindigkeit": 4069,
      "setzung": 4070,
      "Werkzeuge": 4071,
      "Tim": 4072,
      "Vari": 4073,
      "hi": 4074,
      "orge": 4075,
      "voraus": 4076,
      "gelöst": 4077,
      "weiterhin": 4078,
      "fragt": 4079,
      "gestalten": 4080,
      "Schlag": 4081,
      "Schlaf": 4082,
      "Großbritannien": 4083,
      "produziert": 4084,
      "Rücken": 4085,
      "Nahrungs": 4086,
      "Standard": 4087,
      "Entwicklungsl": 4088,
      "Seit": 4089,
      "las": 4090,
      "ande": 4091,
      "lege": 4092,
      "reib": 4093,
      "füllen": 4094,
      "kehren": 4095,
      "Karten": 4096,
      "mmern": 4097,
      "sätzlich": 4098,
      "überraschen": 4099,
      "Ze": 4100,
      "su": 4101,
      "ermöglichen": 4102,
      "gehalten": 4103,
      "urm": 4104,
      "sogenann": 4105,
      "prim": 4106,
      "minister": 4107,
      "fragten": 4108,
      "Todes": 4109,
      "markt": 4110,
      "Zentrum": 4111,
      "text": 4112,
      "künft": 4113,
      "Los": 4114,
      "fiel": 4115,
      "rechten": 4116,
      "Gesellschaften": 4117,
      "gelassen": 4118,
      "versor": 4119,
      "Glas": 4120,
      "Gemeinde": 4121,
      "Gewicht": 4122,
      "täglich": 4123,
      "Kilometer": 4124,
      "Ke": 4125,
      "Szen": 4126,
      "jün": 4127,
      "schwe": 4128,
      "Erf": 4129,
      "blü": 4130,
      "geschichte": 4131,
      "gewachsen": 4132,
      "Web": 4133,
      "okay": 4134,
      "beeinflussen": 4135,
      "Ganz": 4136,
      "Kann": 4137,
      "dige": 4138,
      "kle": 4139,
      "yr": 4140,
      "etten": 4141,
      "einfacher": 4142,
      "freien": 4143,
      "Müll": 4144,
      "Loch": 4145,
      "Osten": 4146,
      "Offen": 4147,
      "bahn": 4148,
      "gs": 4149,
      "onie": 4150,
      "entlang": 4151,
      "weich": 4152,
      "Rep": 4153,
      "ulieren": 4154,
      "seien": 4155,
      "modell": 4156,
      "Com": 4157,
      "Port": 4158,
      "gilt": 4159,
      "wächst": 4160,
      "zy": 4161,
      "istische": 4162,
      "regel": 4163,
      "Gefühle": 4164,
      "schaff": 4165,
      "üsse": 4166,
      "Mond": 4167,
      "Karriere": 4168,
      "Soldaten": 4169,
      "Typen": 4170,
      "Vogel": 4171,
      "Ameisen": 4172,
      "Temperatur": 4173,
      "David": 4174,
      "Heil": 4175,
      "Keine": 4176,
      "Klassen": 4177,
      "Zit": 4178,
      "undament": 4179,
      "geh": 4180,
      "leuch": 4181,
      "isierung": 4182,
      "hohe": 4183,
      "scheinlichkeit": 4184,
      "Perspekt": 4185,
      "lebten": 4186,
      "politische": 4187,
      "Ak": 4188,
      "gra": 4189,
      "erstellen": 4190,
      "wohin": 4191,
      "gramme": 4192,
      "dorthin": 4193,
      "mutlich": 4194,
      "behandelt": 4195,
      "erlauben": 4196,
      "Afghanistan": 4197,
      "Rau": 4198,
      "Wunsch": 4199,
      "enze": 4200,
      "int": 4201,
      "olo": 4202,
      "entsteht": 4203,
      "bruch": 4204,
      "urcht": 4205,
      "osaur": 4206,
      "artig": 4207,
      "Zeichen": 4208,
      "Sal": 4209,
      "ba": 4210,
      "sü": 4211,
      "esser": 4212,
      "leg": 4213,
      "ganzes": 4214,
      "stimmen": 4215,
      "Beruf": 4216,
      "verkauft": 4217,
      "wohner": 4218,
      "Trans": 4219,
      "Neuronen": 4220,
      "gorit": 4221,
      "Brot": 4222,
      "City": 4223,
      "künst": 4224,
      "up": 4225,
      "uz": 4226,
      "inger": 4227,
      "omin": 4228,
      "ochen": 4229,
      "Schei": 4230,
      "dahin": 4231,
      "Spielen": 4232,
      "gewisse": 4233,
      "äuß": 4234,
      "führer": 4235,
      "Zusammenhang": 4236,
      "dauert": 4237,
      "Niemand": 4238,
      "Botschaft": 4239,
      "Diskuss": 4240,
      "Bitte": 4241,
      "Hund": 4242,
      "Kop": 4243,
      "afrikan": 4244,
      "bank": 4245,
      "fs": 4246,
      "tru": 4247,
      "leun": 4248,
      "verfolgen": 4249,
      "Einsatz": 4250,
      "Begriff": 4251,
      "izität": 4252,
      "Konferenz": 4253,
      "gestorben": 4254,
      "Materie": 4255,
      "Sterne": 4256,
      "perfekt": 4257,
      "Facebo": 4258,
      "Hor": 4259,
      "Holz": 4260,
      "Kunden": 4261,
      "rak": 4262,
      "rael": 4263,
      "dagegen": 4264,
      "artige": 4265,
      "ohle": 4266,
      "entwickelten": 4267,
      "betrifft": 4268,
      "umente": 4269,
      "Korallen": 4270,
      "Werkzeug": 4271,
      "amerikanische": 4272,
      "Sekunde": 4273,
      "Facebook": 4274,
      "Position": 4275,
      "relig": 4276,
      "berühr": 4277,
      "füllt": 4278,
      "klingt": 4279,
      "Ausbildung": 4280,
      "Blog": 4281,
      "Jede": 4282,
      "Bedingungen": 4283,
      "Ziele": 4284,
      "städ": 4285,
      "entschied": 4286,
      "reisen": 4287,
      "gewonnen": 4288,
      "gefallen": 4289,
      "front": 4290,
      "vollkommen": 4291,
      "Qualität": 4292,
      "veröffentlicht": 4293,
      "erforschen": 4294,
      "Fortschritt": 4295,
      "bemerkens": 4296,
      "ifornien": 4297,
      "Atmosphäre": 4298,
      "Fün": 4299,
      "Satz": 4300,
      "zog": 4301,
      "ösen": 4302,
      "demie": 4303,
      "Mitglie": 4304,
      "meister": 4305,
      "krebs": 4306,
      "verfüg": 4307,
      "Insekten": 4308,
      "Komplexität": 4309,
      "Abst": 4310,
      "Fach": 4311,
      "Ökos": 4312,
      "tend": 4313,
      "rem": 4314,
      "anda": 4315,
      "davor": 4316,
      "otyp": 4317,
      "saß": 4318,
      "unternehmen": 4319,
      "gewicht": 4320,
      "weiteres": 4321,
      "letztes": 4322,
      "älle": 4323,
      "akten": 4324,
      "Result": 4325,
      "Verhaltens": 4326,
      "verursacht": 4327,
      "2000": 4328,
      "Kö": 4329,
      "Kir": 4330,
      "Pop": 4331,
      "inform": 4332,
      "alleine": 4333,
      "ört": 4334,
      "Aufgaben": 4335,
      "begeister": 4336,
      "Teilchen": 4337,
      "Genom": 4338,
      "vollständig": 4339,
      "zeichen": 4340,
      "verbreitet": 4341,
      "Atom": 4342,
      "Kontakt": 4343,
      "Fernsehen": 4344,
      "kompliz": 4345,
      "Train": 4346,
      "Unterstützung": 4347,
      "Dir": 4348,
      "Dre": 4349,
      "Effekt": 4350,
      "keln": 4351,
      "uni": 4352,
      "hre": 4353,
      "weiten": 4354,
      "bloß": 4355,
      "frika": 4356,
      "okument": 4357,
      "198": 4358,
      "Anti": 4359,
      "Deut": 4360,
      "Universums": 4361,
      "ssystem": 4362,
      "Interaktion": 4363,
      "Denk": 4364,
      "Organisationen": 4365,
      "steigt": 4366,
      "investieren": 4367,
      "400": 4368,
      "Band": 4369,
      "Nutzen": 4370,
      "beteil": 4371,
      "mögliche": 4372,
      "worfen": 4373,
      "losen": 4374,
      "Babys": 4375,
      "benötigen": 4376,
      "Klimawandel": 4377,
      "Col": 4378,
      "Gang": 4379,
      "Wü": 4380,
      "Zur": 4381,
      "kat": 4382,
      "pol": 4383,
      "sorgen": 4384,
      "stat": 4385,
      "itionen": 4386,
      "sparen": 4387,
      "othe": 4388,
      "Auft": 4389,
      "beschreiben": 4390,
      "solch": 4391,
      "basiert": 4392,
      "überzeugt": 4393,
      "Dienst": 4394,
      "Drittel": 4395,
      "Intelligenz": 4396,
      "Bal": 4397,
      "Mc": 4398,
      "Null": 4399,
      "ool": 4400,
      "wü": 4401,
      "gezogen": 4402,
      "destens": 4403,
      "behalten": 4404,
      "usw": 4405,
      "Spiele": 4406,
      "how": 4407,
      "Untersuch": 4408,
      "freund": 4409,
      "Zusammenarbeit": 4410,
      "wissenschaftliche": 4411,
      "fuhr": 4412,
      "kommunizieren": 4413,
      "Plastik": 4414,
      "IT": 4415,
      "fisch": 4416,
      "ling": 4417,
      "äm": 4418,
      "test": 4419,
      "wirkt": 4420,
      "umgehen": 4421,
      "etr": 4422,
      "langt": 4423,
      "liebt": 4424,
      "pfel": 4425,
      "Zweitens": 4426,
      "Journal": 4427,
      "alisierung": 4428,
      "überzeugen": 4429,
      "optim": 4430,
      "Gan": 4431,
      "sächlich": 4432,
      "unbedingt": 4433,
      "ames": 4434,
      "ckten": 4435,
      "klass": 4436,
      "zurückzu": 4437,
      "Landwirtschaft": 4438,
      "Handy": 4439,
      "Schwier": 4440,
      "Wandel": 4441,
      "IDS": 4442,
      "Identität": 4443,
      "Con": 4444,
      "Fest": 4445,
      "Fabr": 4446,
      "Rom": 4447,
      "Sei": 4448,
      "ac": 4449,
      "fle": 4450,
      "our": 4451,
      "gelangen": 4452,
      "spl": 4453,
      "Erklär": 4454,
      "Gesetze": 4455,
      "Beste": 4456,
      "Reich": 4457,
      "konstru": 4458,
      "echan": 4459,
      "Sehr": 4460,
      "ständlich": 4461,
      "Forscher": 4462,
      "Modelle": 4463,
      "herapie": 4464,
      "Brück": 4465,
      "Bank": 4466,
      "Ei": 4467,
      "Eind": 4468,
      "Pass": 4469,
      "ipp": 4470,
      "sitzt": 4471,
      "vermutlich": 4472,
      "Stär": 4473,
      "Stift": 4474,
      "Schmerz": 4475,
      "lautet": 4476,
      "steller": 4477,
      "Mex": 4478,
      "erstes": 4479,
      "wahl": 4480,
      "bestimmen": 4481,
      "Spieler": 4482,
      "unterschiedlichen": 4483,
      "buchstä": 4484,
      "modernen": 4485,
      "beschäftigt": 4486,
      "Hintergrund": 4487,
      "natürliche": 4488,
      "Basis": 4489,
      "Fällen": 4490,
      "gebildet": 4491,
      "Bett": 4492,
      "Pan": 4493,
      "ende": 4494,
      "beeind": 4495,
      "verdienen": 4496,
      "Vertrauen": 4497,
      "ärm": 4498,
      "herausgefunden": 4499,
      "atell": 4500,
      "deutlich": 4501,
      "hältnis": 4502,
      "Herausforderungen": 4503,
      "Jobs": 4504,
      "Graf": 4505,
      "Sind": 4506,
      "lu": 4507,
      "leiten": 4508,
      "tolle": 4509,
      "uar": 4510,
      "asi": 4511,
      "auran": 4512,
      "recher": 4513,
      "ächt": 4514,
      "durchgeführt": 4515,
      "wiederum": 4516,
      "Großteil": 4517,
      "außerdem": 4518,
      "kümmern": 4519,
      "Ken": 4520,
      "Lap": 4521,
      "Masse": 4522,
      "Mobil": 4523,
      "Sorgen": 4524,
      "repräsent": 4525,
      "besitzen": 4526,
      "dieselbe": 4527,
      "frist": 4528,
      "Objekte": 4529,
      "Wahrscheinlichkeit": 4530,
      "Gründen": 4531,
      "Jugend": 4532,
      "Satell": 4533,
      "hte": 4534,
      "ld": 4535,
      "üb": 4536,
      "iegen": 4537,
      "individu": 4538,
      "übertragen": 4539,
      "Statt": 4540,
      "Stoff": 4541,
      "allge": 4542,
      "Zuerst": 4543,
      "arbeiteten": 4544,
      "Problemen": 4545,
      "Bildschirm": 4546,
      "ähle": 4547,
      "sicherlich": 4548,
      "schlechter": 4549,
      "bitten": 4550,
      "alisieren": 4551,
      "impan": 4552,
      "belieb": 4553,
      "Museum": 4554,
      "Affen": 4555,
      "Kohle": 4556,
      "Wur": 4557,
      "Zwe": 4558,
      "gument": 4559,
      "nissen": 4560,
      "ufen": 4561,
      "ieten": 4562,
      "wirst": 4563,
      "bezahlen": 4564,
      "spannen": 4565,
      "nachts": 4566,
      "laut": 4567,
      "geladen": 4568,
      "ford": 4569,
      "ährung": 4570,
      "führung": 4571,
      "wichtigste": 4572,
      "Glob": 4573,
      "mathemat": 4574,
      "Motor": 4575,
      "Hil": 4576,
      "wander": 4577,
      "stop": 4578,
      "euert": 4579,
      "Schimpan": 4580,
      "Gest": 4581,
      "selber": 4582,
      "Austr": 4583,
      "getö": 4584,
      "erklärt": 4585,
      "zufällig": 4586,
      "Bat": 4587,
      "Beine": 4588,
      "Fel": 4589,
      "Frank": 4590,
      "drü": 4591,
      "ham": 4592,
      "sozusagen": 4593,
      "verständlich": 4594,
      "auseinander": 4595,
      "werte": 4596,
      "Rede": 4597,
      "setzte": 4598,
      "automat": 4599,
      "Autor": 4600,
      "dringen": 4601,
      "Geräte": 4602,
      "Milliarde": 4603,
      "benötigt": 4604,
      "Führung": 4605,
      "fördern": 4606,
      "Online": 4607,
      "Leistung": 4608,
      "Institutionen": 4609,
      "spezif": 4610,
      "Zivilis": 4611,
      "religi": 4612,
      "buchstäblich": 4613,
      "150": 4614,
      "Bud": 4615,
      "baut": 4616,
      "dimension": 4617,
      "gä": 4618,
      "Öffent": 4619,
      "anger": 4620,
      "ong": 4621,
      "tert": 4622,
      "hohen": 4623,
      "hafte": 4624,
      "töten": 4625,
      "Präsident": 4626,
      "AIDS": 4627,
      "Bom": 4628,
      "Colle": 4629,
      "Trad": 4630,
      "heil": 4631,
      "läch": 4632,
      "istischen": 4633,
      "anderem": 4634,
      "selbe": 4635,
      "ungskraft": 4636,
      "Golf": 4637,
      "Kaffe": 4638,
      "view": 4639,
      "anne": 4640,
      "daß": 4641,
      "hinweg": 4642,
      "ätsel": 4643,
      "ruf": 4644,
      "wagen": 4645,
      "Neben": 4646,
      "richtung": 4647,
      "tember": 4648,
      "mächtig": 4649,
      "Volk": 4650,
      "osoph": 4651,
      "dürfen": 4652,
      "osaurier": 4653,
      "Iran": 4654,
      "Irak": 4655,
      "Wa": 4656,
      "afen": 4657,
      "flie": 4658,
      "ice": 4659,
      "ilet": 4660,
      "endet": 4661,
      "derzeit": 4662,
      "zukünft": 4663,
      "schlimmer": 4664,
      "nah": 4665,
      "hunderte": 4666,
      "Kindheit": 4667,
      "Patient": 4668,
      "Bildern": 4669,
      "Videos": 4670,
      "falsche": 4671,
      "mindestens": 4672,
      "Strukturen": 4673,
      "Elektro": 4674,
      "Kalifornien": 4675,
      "männ": 4676,
      ",\"": 4677,
      "Sil": 4678,
      "erhält": 4679,
      "schm": 4680,
      "schalten": 4681,
      "entwerfen": 4682,
      "Gefahr": 4683,
      "brachten": 4684,
      "Einfach": 4685,
      "icken": 4686,
      "weiteren": 4687,
      "Bildungs": 4688,
      "Lebensmittel": 4689,
      "Themen": 4690,
      "Experten": 4691,
      "trägt": 4692,
      "Militär": 4693,
      "45": 4694,
      "Mach": 4695,
      "band": 4696,
      "kan": 4697,
      "sse": 4698,
      "neur": 4699,
      "lieber": 4700,
      "Außen": 4701,
      "starb": 4702,
      "Depress": 4703,
      "Falls": 4704,
      "erinnert": 4705,
      "jährigen": 4706,
      "Erinnerung": 4707,
      "getötet": 4708,
      "Ecke": 4709,
      "tin": 4710,
      "ügel": 4711,
      "stolz": 4712,
      "verr": 4713,
      "real": 4714,
      "etter": 4715,
      "heran": 4716,
      "fehlen": 4717,
      "interagieren": 4718,
      "entwickelte": 4719,
      "interessanter": 4720,
      "gefährlich": 4721,
      "öffentliche": 4722,
      "schaute": 4723,
      "Hey": 4724,
      "Restauran": 4725,
      "Fische": 4726,
      "ain": 4727,
      "li": 4728,
      "mater": 4729,
      "netz": 4730,
      "sauber": 4731,
      "schrift": 4732,
      "amin": 4733,
      "agiert": 4734,
      "Verkehr": 4735,
      "durchschnitt": 4736,
      "irgendwann": 4737,
      "sprachen": 4738,
      "Besonder": 4739,
      "zählen": 4740,
      "Gold": 4741,
      "verwandeln": 4742,
      "Epi": 4743,
      "Fünf": 4744,
      "BI": 4745,
      "air": 4746,
      "stam": 4747,
      "senden": 4748,
      "unsicht": 4749,
      "Proje": 4750,
      "forschung": 4751,
      "Sep": 4752,
      "Überleben": 4753,
      "ignor": 4754,
      "Sprachen": 4755,
      "Augenblick": 4756,
      "Brenn": 4757,
      "existieren": 4758,
      "Rahmen": 4759,
      "überrascht": 4760,
      "kriegen": 4761,
      "probieren": 4762,
      "Kohlenstoff": 4763,
      "fotograf": 4764,
      "Jungs": 4765,
      "Zun": 4766,
      "log": 4767,
      "einsetzen": 4768,
      "teste": 4769,
      "bewahr": 4770,
      "weiss": 4771,
      "sper": 4772,
      "kla": 4773,
      "perim": 4774,
      "echten": 4775,
      "Kontext": 4776,
      "gegenseit": 4777,
      "möglicherweise": 4778,
      "letztendlich": 4779,
      "Gegenteil": 4780,
      "Heimat": 4781,
      "Hör": 4782,
      "Liter": 4783,
      "Mechan": 4784,
      "Norden": 4785,
      "zeiten": 4786,
      "irgen": 4787,
      "klus": 4788,
      "Fleisch": 4789,
      "Folge": 4790,
      "Bauern": 4791,
      "Konflikt": 4792,
      "Professor": 4793,
      "MS": 4794,
      "Maus": 4795,
      "treiben": 4796,
      "erle": 4797,
      "orien": 4798,
      "Spekt": 4799,
      "eigent": 4800,
      "gelesen": 4801,
      "achtung": 4802,
      "Impf": 4803,
      "fordert": 4804,
      "hauptsächlich": 4805,
      "Solar": 4806,
      "tue": 4807,
      "Außerdem": 4808,
      "Quadrat": 4809,
      "verantwortlich": 4810,
      "Laptop": 4811,
      "35": 4812,
      "Gar": 4813,
      "Meilen": 4814,
      "Samm": 4815,
      "mass": 4816,
      "gehören": 4817,
      "zubringen": 4818,
      "Innen": 4819,
      "Dinosaurier": 4820,
      "gewisser": 4821,
      "springen": 4822,
      "lernt": 4823,
      "wirtschaftlichen": 4824,
      "drückt": 4825,
      "bemerkt": 4826,
      "England": 4827,
      "schwarz": 4828,
      "erkannte": 4829,
      "Galaxien": 4830,
      "begeistert": 4831,
      "Kan": 4832,
      "Ox": 4833,
      "Rich": 4834,
      "Tw": 4835,
      "Temp": 4836,
      "dran": 4837,
      "histor": 4838,
      "part": 4839,
      "ton": 4840,
      "chern": 4841,
      "unbe": 4842,
      "begeg": 4843,
      "benutz": 4844,
      "demokrat": 4845,
      "Verbr": 4846,
      "Eins": 4847,
      "detwas": 4848,
      "besseren": 4849,
      "versuchten": 4850,
      "Frem": 4851,
      "interessieren": 4852,
      "nächstes": 4853,
      "verbracht": 4854,
      "Wahrnehm": 4855,
      "jährige": 4856,
      "Aktivität": 4857,
      "Häuser": 4858,
      "Wettbewer": 4859,
      "September": 4860,
      "Lern": 4861,
      "Nan": 4862,
      "Zimmer": 4863,
      "dra": 4864,
      "disk": 4865,
      "rasch": 4866,
      "ößen": 4867,
      "ichts": 4868,
      "berech": 4869,
      "gesund": 4870,
      "stärker": 4871,
      "Bruder": 4872,
      "wechseln": 4873,
      "praktisch": 4874,
      "Vision": 4875,
      "Lieblings": 4876,
      "verhindern": 4877,
      "Perspektive": 4878,
      "99": 4879,
      "Cent": 4880,
      "Nutz": 4881,
      "Ter": 4882,
      "geist": 4883,
      "still": 4884,
      "gehabt": 4885,
      "amt": 4886,
      "sichten": 4887,
      "wood": 4888,
      "tzeit": 4889,
      "hlten": 4890,
      "Algorit": 4891,
      "quenzen": 4892,
      "drin": 4893,
      "priv": 4894,
      "berühm": 4895,
      "Diagr": 4896,
      "deinen": 4897,
      "ek": 4898,
      "mutter": 4899,
      "erster": 4900,
      "eingesetzt": 4901,
      "anen": 4902,
      "hergestellt": 4903,
      "erzähle": 4904,
      "brauchten": 4905,
      "Unternehmer": 4906,
      "West": 4907,
      "welchen": 4908,
      "führten": 4909,
      "zeugen": 4910,
      "Metap": 4911,
      "Mission": 4912,
      "Fig": 4913,
      "Rand": 4914,
      "öt": 4915,
      "erlebt": 4916,
      "ffer": 4917,
      "gerät": 4918,
      "fingen": 4919,
      "Landschaft": 4920,
      "drän": 4921,
      "getrieben": 4922,
      "Bras": 4923,
      "normalen": 4924,
      "Israel": 4925,
      "doppelt": 4926,
      "virtu": 4927,
      "Gewebe": 4928,
      "75": 4929,
      "Ama": 4930,
      "Haufen": 4931,
      "Sim": 4932,
      "iden": 4933,
      "phen": 4934,
      "pft": 4935,
      "erkennt": 4936,
      "einiger": 4937,
      "atoren": 4938,
      "Verstand": 4939,
      "geschickt": 4940,
      "gebrochen": 4941,
      "appen": 4942,
      "richtungen": 4943,
      "höre": 4944,
      "wunderbare": 4945,
      "Code": 4946,
      "Katastrop": 4947,
      "Radio": 4948,
      "Moleküle": 4949,
      "nötig": 4950,
      "Mos": 4951,
      "gig": 4952,
      "amb": 4953,
      "entworfen": 4954,
      "neg": 4955,
      "Verletz": 4956,
      "person": 4957,
      "Zuschau": 4958,
      "starke": 4959,
      "bekannten": 4960,
      "Stress": 4961,
      "Gedanke": 4962,
      "wichtigen": 4963,
      "Schwester": 4964,
      "gruppe": 4965,
      "Gespräch": 4966,
      "maschine": 4967,
      "gäbe": 4968,
      "Öffentlichkeit": 4969,
      "Händen": 4970,
      "Log": 4971,
      "UN": 4972,
      "blichkeit": 4973,
      "steuern": 4974,
      "schien": 4975,
      "tere": 4976,
      "geschlagen": 4977,
      "gewand": 4978,
      "Grenze": 4979,
      "loss": 4980,
      "ähnliche": 4981,
      "unterschiedlich": 4982,
      "schule": 4983,
      "mäßig": 4984,
      "Erkenntnis": 4985,
      "stammt": 4986,
      "irgendetwas": 4987,
      "Nation": 4988,
      "Tel": 4989,
      "Tren": 4990,
      "furcht": 4991,
      "gien": 4992,
      "jung": 4993,
      "uh": 4994,
      "engl": 4995,
      "esch": 4996,
      "somit": 4997,
      "beantworten": 4998,
      "hingt": 4999,
      "unterscheiden": 5000,
      "gestern": 5001,
      "Lied": 5002,
      "nost": 5003,
      "Stimmen": 5004,
      "Experimente": 5005,
      "Laufe": 5006,
      "Akt": 5007,
      "Ol": 5008,
      "Opt": 5009,
      "Sens": 5010,
      "kolle": 5011,
      "pern": 5012,
      "äumen": 5013,
      "neut": 5014,
      "Erleb": 5015,
      "uchen": 5016,
      "Washingt": 5017,
      "wenigen": 5018,
      "bares": 5019,
      "ologisch": 5020,
      "wegs": 5021,
      "experim": 5022,
      "etzten": 5023,
      "meistens": 5024,
      "Defin": 5025,
      "zugän": 5026,
      "Folgendes": 5027,
      "nannte": 5028,
      "Chir": 5029,
      "Hunger": 5030,
      "Krise": 5031,
      "Laden": 5032,
      "Rie": 5033,
      "Wesent": 5034,
      "cis": 5035,
      "piel": 5036,
      "tau": 5037,
      "ül": 5038,
      "unken": 5039,
      "getr": 5040,
      "ara": 5041,
      "organ": 5042,
      "verw": 5043,
      "aufbauen": 5044,
      "rede": 5045,
      "entspricht": 5046,
      "musst": 5047,
      "Zeitalter": 5048,
      "teln": 5049,
      "hoffen": 5050,
      "fahrt": 5051,
      "ützt": 5052,
      "Minute": 5053,
      "Bewegungen": 5054,
      "wissenschaftlichen": 5055,
      "fähigkeit": 5056,
      "wechsel": 5057,
      "Metapher": 5058,
      "Washington": 5059,
      "Ed": 5060,
      "dur": 5061,
      "dritten": 5062,
      "günst": 5063,
      "ink": 5064,
      "ony": 5065,
      "bekamen": 5066,
      "vergleichen": 5067,
      "Beob": 5068,
      "Beweis": 5069,
      "nochmal": 5070,
      "hoffent": 5071,
      "pflanzen": 5072,
      "agement": 5073,
      "beschleun": 5074,
      "getragen": 5075,
      "linken": 5076,
      "bauten": 5077,
      "echtigkeit": 5078,
      "ränk": 5079,
      "Irgend": 5080,
      "Richard": 5081,
      "Hom": 5082,
      "Rätsel": 5083,
      "Wellen": 5084,
      "angesehen": 5085,
      "itiv": 5086,
      "Gras": 5087,
      "müsste": 5088,
      "Ihres": 5089,
      "danken": 5090,
      "öffentlich": 5091,
      "Tests": 5092,
      "Website": 5093,
      "Satelliten": 5094,
      "Schimpansen": 5095,
      "hoffentlich": 5096,
      "Mund": 5097,
      "Mütter": 5098,
      "Sein": 5099,
      "by": 5100,
      "bür": 5101,
      "gas": 5102,
      "stür": 5103,
      "terie": 5104,
      "bereitet": 5105,
      "aufhören": 5106,
      "Stein": 5107,
      "könnt": 5108,
      "merken": 5109,
      "Lebe": 5110,
      "Spiegel": 5111,
      "Zucker": 5112,
      "starten": 5113,
      "Kombin": 5114,
      "allerdings": 5115,
      "Andere": 5116,
      "vention": 5117,
      "Trotz": 5118,
      "Ech": 5119,
      "Fle": 5120,
      "pfe": 5121,
      "pret": 5122,
      "sä": 5123,
      "yse": 5124,
      "derungen": 5125,
      "verbrauch": 5126,
      "etrie": 5127,
      "Dass": 5128,
      "ingu": 5129,
      "artigen": 5130,
      "möglichkeiten": 5131,
      "Obwohl": 5132,
      "Eigentlich": 5133,
      "Politiker": 5134,
      "Etwas": 5135,
      "gespielt": 5136,
      "total": 5137,
      "effektiv": 5138,
      "spüren": 5139,
      "Individuen": 5140,
      "bezahlt": 5141,
      "College": 5142,
      "Kaffee": 5143,
      "Twitter": 5144,
      "Fas": 5145,
      "Gas": 5146,
      "Nationen": 5147,
      "Normal": 5148,
      "Sitz": 5149,
      "Tom": 5150,
      "frie": 5151,
      "nei": 5152,
      "uner": 5153,
      "dennoch": 5154,
      "armen": 5155,
      "eting": 5156,
      "Red": 5157,
      "suchte": 5158,
      "schlossen": 5159,
      "ystemen": 5160,
      "genauer": 5161,
      "schneiden": 5162,
      "reiche": 5163,
      "stimm": 5164,
      "kennung": 5165,
      "Gegensatz": 5166,
      "normale": 5167,
      "Toilet": 5168,
      "Medikament": 5169,
      "lustig": 5170,
      "motiv": 5171,
      "Ganze": 5172,
      "Dabei": 5173,
      "Pfer": 5174,
      "Tun": 5175,
      "Tab": 5176,
      "fährt": 5177,
      "handen": 5178,
      "ole": 5179,
      "zuzu": 5180,
      "legte": 5181,
      "roten": 5182,
      "kombin": 5183,
      "Orig": 5184,
      "brauche": 5185,
      "heißen": 5186,
      "ständen": 5187,
      "wirtschaftliche": 5188,
      "Gleiche": 5189,
      "erscheinen": 5190,
      "schwarze": 5191,
      "reduzieren": 5192,
      "Entdeckung": 5193,
      "Tausende": 5194,
      "ologe": 5195,
      "Eindruck": 5196,
      "Bon": 5197,
      "Fett": 5198,
      "Kein": 5199,
      "Lang": 5200,
      "Tor": 5201,
      "hie": 5202,
      "hmt": 5203,
      "nutzt": 5204,
      "inkt": 5205,
      "amat": 5206,
      "usion": 5207,
      "entstanden": 5208,
      "Weltraum": 5209,
      "tritt": 5210,
      "Zuhause": 5211,
      "hörten": 5212,
      "nieman": 5213,
      "spielte": 5214,
      "Gehirne": 5215,
      "Steuer": 5216,
      "Kontin": 5217,
      "Welche": 5218,
      "Fakten": 5219,
      "Rot": 5220,
      "dün": 5221,
      "fei": 5222,
      "pte": 5223,
      "vard": 5224,
      "ökonom": 5225,
      "erfinden": 5226,
      "integr": 5227,
      "iell": 5228,
      "eindeut": 5229,
      "schlau": 5230,
      "denk": 5231,
      "itieren": 5232,
      "utze": 5233,
      "spiegel": 5234,
      "Star": 5235,
      "Schne": 5236,
      "Insel": 5237,
      "besor": 5238,
      "vieler": 5239,
      "Mitarbeiter": 5240,
      "langweil": 5241,
      "Quanten": 5242,
      "kümmer": 5243,
      "käm": 5244,
      "Kampag": 5245,
      "identif": 5246,
      "Brasilien": 5247,
      "ahe": 5248,
      "angehen": 5249,
      "orient": 5250,
      "verst": 5251,
      "Rechte": 5252,
      "schwimmen": 5253,
      "Abschluss": 5254,
      "ifik": 5255,
      "ordnung": 5256,
      "Körpers": 5257,
      "verbreiten": 5258,
      "Vorteil": 5259,
      "skop": 5260,
      "persönlich": 5261,
      "Methoden": 5262,
      "analys": 5263,
      "diskut": 5264,
      "Bein": 5265,
      "Hins": 5266,
      "Klang": 5267,
      "Kräfte": 5268,
      "NS": 5269,
      "Pak": 5270,
      "Russ": 5271,
      "dro": 5272,
      "gyp": 5273,
      "ox": 5274,
      "poten": 5275,
      "eskop": 5276,
      "recken": 5277,
      "utt": 5278,
      "riften": 5279,
      "fernen": 5280,
      "alisiert": 5281,
      "Prototyp": 5282,
      "Gesundheitswesen": 5283,
      "kompliziert": 5284,
      "studieren": 5285,
      "Australien": 5286,
      "Hinsicht": 5287,
      "Krit": 5288,
      "Niger": 5289,
      "Show": 5290,
      "effizien": 5291,
      "pon": 5292,
      "singen": 5293,
      "staben": 5294,
      "verein": 5295,
      "vertrauen": 5296,
      "wieso": 5297,
      "ischem": 5298,
      "ike": 5299,
      "Ins": 5300,
      "Ansicht": 5301,
      "Wieso": 5302,
      "beschlossen": 5303,
      "Elemente": 5304,
      "Forschungs": 5305,
      "angene": 5306,
      "Naja": 5307,
      "Mikroben": 5308,
      "verschwinden": 5309,
      "kürzlich": 5310,
      "relativ": 5311,
      "lim": 5312,
      "abet": 5313,
      "etzen": 5314,
      "ischt": 5315,
      "weib": 5316,
      "halbe": 5317,
      "uliert": 5318,
      "gefahr": 5319,
      "Auswahl": 5320,
      "Flag": 5321,
      "wahre": 5322,
      "Jeden": 5323,
      "kurzen": 5324,
      "ica": 5325,
      "verbrachte": 5326,
      "Netzwerke": 5327,
      "Organismen": 5328,
      "beinhal": 5329,
      "Gedicht": 5330,
      "natürlichen": 5331,
      "Arbeiten": 5332,
      "Elektrizität": 5333,
      ".,": 5334,
      "Zell": 5335,
      "kreis": 5336,
      "preis": 5337,
      "täu": 5338,
      "ierer": 5339,
      "bestand": 5340,
      "School": 5341,
      "vorhanden": 5342,
      "brü": 5343,
      "ruption": 5344,
      "Nachdem": 5345,
      "Klin": 5346,
      "elev": 5347,
      "Gemeinden": 5348,
      "Linien": 5349,
      "biot": 5350,
      "Streit": 5351,
      "Generationen": 5352,
      "ografie": 5353,
      "Milch": 5354,
      "Wohlstand": 5355,
      "Hallo": 5356,
      "Lebewesen": 5357,
      "Aspekt": 5358,
      "blieb": 5359,
      "stren": 5360,
      "geändert": 5361,
      "ago": 5362,
      "Vert": 5363,
      "griffen": 5364,
      "damer": 5365,
      "leichter": 5366,
      "schlafen": 5367,
      "train": 5368,
      "zunächst": 5369,
      "Islam": 5370,
      "Schnitt": 5371,
      "morgens": 5372,
      "Francis": 5373,
      "?“": 5374,
      "Cy": 5375,
      "Emp": 5376,
      "Garten": 5377,
      "Lachen": 5378,
      "eure": 5379,
      "grei": 5380,
      "port": 5381,
      "tät": 5382,
      "inf": 5383,
      "geber": 5384,
      "zufrieden": 5385,
      "vergangen": 5386,
      "Verhältnis": 5387,
      "merzen": 5388,
      "Angel": 5389,
      "Interessen": 5390,
      "frem": 5391,
      "gewöhnlich": 5392,
      "Hotel": 5393,
      "komplexe": 5394,
      "definieren": 5395,
      "Träume": 5396,
      "kurzem": 5397,
      "Details": 5398,
      "Grafik": 5399,
      "Lo": 5400,
      "Tanz": 5401,
      "ban": 5402,
      "fung": 5403,
      "hese": 5404,
      "zelle": 5405,
      "Ägyp": 5406,
      "lebe": 5407,
      "Schwei": 5408,
      "wobei": 5409,
      "zweif": 5410,
      "Ausmaß": 5411,
      "schland": 5412,
      "Existenz": 5413,
      "Korruption": 5414,
      "Viren": 5415,
      "Doktor": 5416,
      "medizinische": 5417,
      "Diskussion": 5418,
      "zugänglich": 5419,
      "3D": 5420,
      "Atem": 5421,
      "Fischer": 5422,
      "Mas": 5423,
      "Ober": 5424,
      "Wik": 5425,
      "Wetter": 5426,
      "bu": 5427,
      "flex": 5428,
      "wes": 5429,
      "inde": 5430,
      "tele": 5431,
      "entgegen": 5432,
      "meiste": 5433,
      "Persön": 5434,
      "Chemikal": 5435,
      "aufregend": 5436,
      "ächtnis": 5437,
      "600": 5438,
      "Don": 5439,
      "Gu": 5440,
      "Sech": 5441,
      "com": 5442,
      "eiter": 5443,
      "Stau": 5444,
      "änger": 5445,
      "nachhalt": 5446,
      "langer": 5447,
      "Geschlecht": 5448,
      "gehend": 5449,
      "Vorfahren": 5450,
      "Beim": 5451,
      "Planet": 5452,
      "gründet": 5453,
      "Dach": 5454,
      "Hyp": 5455,
      "Roll": 5456,
      "tan": 5457,
      "zig": 5458,
      "aufs": 5459,
      "entsprechen": 5460,
      "beispiel": 5461,
      "Beweise": 5462,
      "otionen": 5463,
      "bli": 5464,
      "nieder": 5465,
      "Entfern": 5466,
      "Weile": 5467,
      "aturen": 5468,
      "spruch": 5469,
      "Quelle": 5470,
      "Buchstaben": 5471,
      "bietet": 5472,
      "beobachtet": 5473,
      "verbindet": 5474,
      "beschäftigen": 5475,
      "karte": 5476,
      "notwendig": 5477,
      "drüben": 5478,
      "Fälle": 5479,
      "frau": 5480,
      "fasst": 5481,
      "gu": 5482,
      "ida": 5483,
      "tial": 5484,
      "zon": 5485,
      "anwenden": 5486,
      "ausch": 5487,
      "onom": 5488,
      "uman": 5489,
      "stehe": 5490,
      "Erwart": 5491,
      "Armen": 5492,
      "Umfeld": 5493,
      "beschloss": 5494,
      "Jemand": 5495,
      "Emotionen": 5496,
      "Chemie": 5497,
      "Geräusch": 5498,
      "grundlegende": 5499,
      "Zuschauer": 5500,
      "Ill": 5501,
      "Sam": 5502,
      "verstand": 5503,
      "annehmen": 5504,
      "auspiel": 5505,
      "Start": 5506,
      "Erkrank": 5507,
      "Gem": 5508,
      "kannte": 5509,
      "darstellen": 5510,
      "heira": 5511,
      "meist": 5512,
      "pflan": 5513,
      "dramat": 5514,
      "Sprach": 5515,
      "zerstört": 5516,
      "zerstören": 5517,
      "enorme": 5518,
      "Maßstab": 5519,
      "Times": 5520,
      "Entwicklungsländern": 5521,
      "berührt": 5522,
      "Deutschland": 5523,
      "Erklärung": 5524,
      "Wahrnehmung": 5525,
      "DNS": 5526,
      "Sog": 5527,
      "bele": 5528,
      "teile": 5529,
      "zung": 5530,
      "erscheint": 5531,
      "stung": 5532,
      "ones": 5533,
      "cks": 5534,
      "Schatten": 5535,
      "Rech": 5536,
      "Eng": 5537,
      "olly": 5538,
      "block": 5539,
      "beschrieben": 5540,
      "Komment": 5541,
      "ktivität": 5542,
      "Durchschnitt": 5543,
      "Neuro": 5544,
      "Architekten": 5545,
      "bewegung": 5546,
      "Kerl": 5547,
      "traditionellen": 5548,
      "Zitat": 5549,
      "verfügbar": 5550,
      "beeindrucken": 5551,
      "bliothe": 5552,
      "Dat": 5553,
      "Jul": 5554,
      "Mart": 5555,
      "MIT": 5556,
      "dischen": 5557,
      "dynam": 5558,
      "hst": 5559,
      "erstellt": 5560,
      "stums": 5561,
      "onstr": 5562,
      "gewissen": 5563,
      "deswegen": 5564,
      "dafrika": 5565,
      "brill": 5566,
      "wirkung": 5567,
      "Größen": 5568,
      "Konse": 5569,
      "Arbeitspl": 5570,
      "Berechn": 5571,
      "Syn": 5572,
      "Kulturen": 5573,
      "Kurz": 5574,
      "tellekt": 5575,
      "übrig": 5576,
      "stabil": 5577,
      "Harvard": 5578,
      "gruppen": 5579,
      "nützlich": 5580,
      "prüfen": 5581,
      "Nachbarn": 5582,
      "wesentlich": 5583,
      "Strategie": 5584,
      "Zehn": 5585,
      "Mexiko": 5586,
      "-,": 5587,
      "Fant": 5588,
      "Seine": 5589,
      "Sob": 5590,
      "Tö": 5591,
      "Tri": 5592,
      "Tonnen": 5593,
      "sser": 5594,
      "aufgebaut": 5595,
      "oler": 5596,
      "brach": 5597,
      "liefern": 5598,
      "Auff": 5599,
      "fordern": 5600,
      "Vorstell": 5601,
      "Aufnahme": 5602,
      "zeigten": 5603,
      "Kreuz": 5604,
      "umenten": 5605,
      "Freundin": 5606,
      "aufzubauen": 5607,
      "Kurs": 5608,
      "Post": 5609,
      "Schwierigkeiten": 5610,
      "Bahn": 5611,
      "Pingu": 5612,
      "vo": 5613,
      "intens": 5614,
      "vermitteln": 5615,
      "umgeben": 5616,
      "Stör": 5617,
      "graben": 5618,
      "räge": 5619,
      "expl": 5620,
      "Werbung": 5621,
      "sprache": 5622,
      "Teen": 5623,
      "Gewinn": 5624,
      "Bereichen": 5625,
      "sätze": 5626,
      "ographie": 5627,
      "Os": 5628,
      "Open": 5629,
      "unabhängig": 5630,
      "ancen": 5631,
      "außen": 5632,
      "orfen": 5633,
      "atte": 5634,
      "beziehen": 5635,
      "ausger": 5636,
      "Angriff": 5637,
      "Voraus": 5638,
      "Seele": 5639,
      "zweit": 5640,
      "Wissens": 5641,
      "worüber": 5642,
      "Klein": 5643,
      "schlechten": 5644,
      "folgende": 5645,
      "World": 5646,
      "betrieben": 5647,
      "blauen": 5648,
      "erwähnt": 5649,
      "inspiriert": 5650,
      "Arbeiter": 5651,
      "westlichen": 5652,
      "muster": 5653,
      ".«": 5654,
      "Jan": 5655,
      "Les": 5656,
      "Ve": 5657,
      "Zauber": 5658,
      "mord": 5659,
      "ergibt": 5660,
      "ersetzen": 5661,
      "spät": 5662,
      "Inhalt": 5663,
      "aucht": 5664,
      "Anrei": 5665,
      "Anteil": 5666,
      "Bestand": 5667,
      "landen": 5668,
      "malen": 5669,
      "ession": 5670,
      "geworfen": 5671,
      "müssten": 5672,
      "setzten": 5673,
      "quasi": 5674,
      "solcher": 5675,
      "haften": 5676,
      "menschlicher": 5677,
      "icro": 5678,
      "moment": 5679,
      "Bereiche": 5680,
      "kehrt": 5681,
      "Präsent": 5682,
      "Sicherheits": 5683,
      "Situationen": 5684,
      "verbessert": 5685,
      "Fernseh": 5686,
      "winden": 5687,
      "Risiken": 5688,
      "imensionen": 5689,
      "enorm": 5690,
      "Signal": 5691,
      "Erwachsenen": 5692,
      "Wolken": 5693,
      "versorgung": 5694,
      "Zweck": 5695,
      "Zivilisation": 5696,
      "Brü": 5697,
      "Gü": 5698,
      "do": 5699,
      "dy": 5700,
      "ral": 5701,
      "san": 5702,
      "ustr": 5703,
      "va": 5704,
      "zusätz": 5705,
      "bereiten": 5706,
      "vorzu": 5707,
      "Verbesser": 5708,
      "Anwen": 5709,
      "Geschen": 5710,
      "trinken": 5711,
      "Kons": 5712,
      "Stuhl": 5713,
      "Student": 5714,
      "diag": 5715,
      "entdeckte": 5716,
      "technologie": 5717,
      "Neues": 5718,
      "Fahrrad": 5719,
      "züglich": 5720,
      "Rake": 5721,
      "wältigen": 5722,
      "Molekül": 5723,
      "Viertel": 5724,
      "Geheimnis": 5725,
      "Zwischen": 5726,
      "gefahren": 5727,
      "Sogar": 5728,
      "PS": 5729,
      "Paul": 5730,
      "lück": 5731,
      "pul": 5732,
      "wachen": 5733,
      "enter": 5734,
      "Schlei": 5735,
      "vorne": 5736,
      "Anim": 5737,
      "füll": 5738,
      "zem": 5739,
      "ognit": 5740,
      "fehl": 5741,
      "Vorher": 5742,
      "gegenwär": 5743,
      "eitete": 5744,
      "Theater": 5745,
      "Platt": 5746,
      "Element": 5747,
      "holfen": 5748,
      "gebeten": 5749,
      "erkannt": 5750,
      "Vögel": 5751,
      "Operation": 5752,
      "digitalen": 5753,
      "Letzt": 5754,
      "Trag": 5755,
      "üge": 5756,
      "erwei": 5757,
      "gewe": 5758,
      "arme": 5759,
      "ussen": 5760,
      "fügt": 5761,
      "Einheit": 5762,
      "ätigkeit": 5763,
      "ulpt": 5764,
      "äuse": 5765,
      "Kongress": 5766,
      "diglich": 5767,
      "Stufe": 5768,
      "sprung": 5769,
      "Großmutter": 5770,
      "Prim": 5771,
      "tiefer": 5772,
      "baute": 5773,
      "Urs": 5774,
      "Damals": 5775,
      "plant": 5776,
      "Komponen": 5777,
      "Belo": 5778,
      "beinahe": 5779,
      "transport": 5780,
      "schrecklich": 5781,
      "Diagramm": 5782,
      "Riesen": 5783,
      "65": 5784,
      "Cha": 5785,
      "Gro": 5786,
      "Lungen": 5787,
      "Zahn": 5788,
      "dische": 5789,
      "zwe": 5790,
      "üben": 5791,
      "ermut": 5792,
      "gelegt": 5793,
      "entstand": 5794,
      "Verlust": 5795,
      "grös": 5796,
      "untersucht": 5797,
      "wissenschaften": 5798,
      "Zug": 5799,
      "hoben": 5800,
      "Flücht": 5801,
      "stattdessen": 5802,
      "bekannte": 5803,
      "persönliche": 5804,
      "moderne": 5805,
      "vermeiden": 5806,
      "Tradition": 5807,
      "Definition": 5808,
      "Blau": 5809,
      "Fliegen": 5810,
      "Rock": 5811,
      "Wech": 5812,
      "kin": 5813,
      "lös": 5814,
      "oo": 5815,
      "relev": 5816,
      "systeme": 5817,
      "van": 5818,
      "angeb": 5819,
      "hrop": 5820,
      "lekul": 5821,
      "verwir": 5822,
      "verteilt": 5823,
      "Ungleich": 5824,
      "eucht": 5825,
      "Anwendung": 5826,
      "hinten": 5827,
      "dul": 5828,
      "würdig": 5829,
      "suchten": 5830,
      "flug": 5831,
      "wachstum": 5832,
      "Staats": 5833,
      "welchem": 5834,
      "persönlichen": 5835,
      "Geistes": 5836,
      "Konflik": 5837,
      "Bund": 5838,
      "Teu": 5839,
      "lachen": 5840,
      "mult": 5841,
      "wör": 5842,
      "zten": 5843,
      "chron": 5844,
      "aria": 5845,
      "realen": 5846,
      "Schauspiel": 5847,
      "Gesamt": 5848,
      "Rechen": 5849,
      "pfung": 5850,
      "langfrist": 5851,
      "qualität": 5852,
      "Interview": 5853,
      "linge": 5854,
      "Pfund": 5855,
      "erstaunliche": 5856,
      "Anderson": 5857,
      "trans": 5858,
      "fantastisch": 5859,
      "besuchen": 5860,
      "Paar": 5861,
      "dunkle": 5862,
      "Brücke": 5863,
      "Wurz": 5864,
      "Bauch": 5865,
      "Bri": 5866,
      "Brief": 5867,
      "Cor": 5868,
      "Rhy": 5869,
      "Winter": 5870,
      "moch": 5871,
      "ziel": 5872,
      "atmen": 5873,
      "lediglich": 5874,
      "abe": 5875,
      "versteht": 5876,
      "Stad": 5877,
      "ängst": 5878,
      "riechen": 5879,
      "zusammenzu": 5880,
      "197": 5881,
      "boden": 5882,
      "zentrum": 5883,
      "Leider": 5884,
      "Bedro": 5885,
      "Christ": 5886,
      "gross": 5887,
      "Gutes": 5888,
      "unterstützt": 5889,
      "Helden": 5890,
      "Erinnerungen": 5891,
      "Wesentlichen": 5892,
      "Air": 5893,
      "Gre": 5894,
      "Hunde": 5895,
      "Moral": 5896,
      "Paten": 5897,
      "Trau": 5898,
      "Wild": 5899,
      "nü": 5900,
      "pfl": 5901,
      "uen": 5902,
      "ston": 5903,
      "berg": 5904,
      "weile": 5905,
      "enthält": 5906,
      "Stock": 5907,
      "äne": 5908,
      "Gehen": 5909,
      "Gegend": 5910,
      "gelt": 5911,
      "innov": 5912,
      "barer": 5913,
      "seitdem": 5914,
      "Chic": 5915,
      "trafen": 5916,
      "verkauf": 5917,
      "schwieriger": 5918,
      "tags": 5919,
      "Nieder": 5920,
      "Philosoph": 5921,
      "Stammzellen": 5922,
      "bestät": 5923,
      "vertraut": 5924,
      "Wüste": 5925,
      "Stärke": 5926,
      "durchschnittliche": 5927,
      "Dutzen": 5928,
      "Hem": 5929,
      "It": 5930,
      "Skla": 5931,
      "Wäl": 5932,
      "You": 5933,
      "fundament": 5934,
      "zös": 5935,
      "iein": 5936,
      "arab": 5937,
      "genü": 5938,
      "decken": 5939,
      "beweisen": 5940,
      "vermögen": 5941,
      "vorzustellen": 5942,
      "reiten": 5943,
      "hierher": 5944,
      "hoff": 5945,
      "fahrer": 5946,
      "Danach": 5947,
      "drauf": 5948,
      "Chip": 5949,
      "Wow": 5950,
      "Respekt": 5951,
      "Spezial": 5952,
      "Süden": 5953,
      "Kriegs": 5954,
      "Transport": 5955,
      "verstehe": 5956,
      "Galaxie": 5957,
      "Ökosystem": 5958,
      "eindeutig": 5959,
      "beinhaltet": 5960,
      "Chemikalien": 5961,
      "Teufel": 5962,
      "Eier": 5963,
      "Kate": 5964,
      "Lib": 5965,
      "Lager": 5966,
      "Sum": 5967,
      "Tumor": 5968,
      "fir": 5969,
      "sim": 5970,
      "enzt": 5971,
      "erhielt": 5972,
      "schüt": 5973,
      "gelebt": 5974,
      "abil": 5975,
      "aufnehmen": 5976,
      "etc": 5977,
      "design": 5978,
      "herein": 5979,
      "komm": 5980,
      "klasse": 5981,
      "Einstein": 5982,
      "besagt": 5983,
      "riebs": 5984,
      "wendet": 5985,
      "meinte": 5986,
      "fehlt": 5987,
      "binden": 5988,
      "Imm": 5989,
      "feststellen": 5990,
      "nose": 5991,
      "speich": 5992,
      "zählt": 5993,
      "Empf": 5994,
      "imeter": 5995,
      "faszinierend": 5996,
      "internationalen": 5997,
      "lehrt": 5998,
      "Potential": 5999,
      "Instrument": 6000,
      "Kombination": 6001,
      "Echtzeit": 6002,
      "Kontinent": 6003,
      "Astr": 6004,
      "Fa": 6005,
      "James": 6006,
      "Richtig": 6007,
      "ew": 6008,
      "gegründet": 6009,
      "verdam": 6010,
      "kton": 6011,
      "ftig": 6012,
      "entfernen": 6013,
      "George": 6014,
      "gesamm": 6015,
      "Verbrauch": 6016,
      "darunter": 6017,
      "ücken": 6018,
      "Weih": 6019,
      "Darum": 6020,
      "kreativ": 6021,
      "schauten": 6022,
      "Führungs": 6023,
      "Ozeane": 6024,
      "lokalen": 6025,
      "kreieren": 6026,
      "Bedürfnisse": 6027,
      "leuchten": 6028,
      "Fabrik": 6029,
      "Teleskop": 6030,
      "Erlebnis": 6031,
      "Kampagne": 6032,
      "23": 6033,
      "Aspe": 6034,
      "Lasst": 6035,
      "Merk": 6036,
      "Wein": 6037,
      "dicht": 6038,
      "domin": 6039,
      "mikro": 6040,
      "zesse": 6041,
      "erre": 6042,
      "stät": 6043,
      "umge": 6044,
      "umfassen": 6045,
      "ausgest": 6046,
      "Erinn": 6047,
      "Mengen": 6048,
      "igem": 6049,
      "Einen": 6050,
      "ätter": 6051,
      "rustr": 6052,
      "Lebenser": 6053,
      "wirklichen": 6054,
      "räume": 6055,
      "scheinbar": 6056,
      "Blatt": 6057,
      "Herren": 6058,
      "Handel": 6059,
      "Malaria": 6060,
      "Gerechtigkeit": 6061,
      "2008": 6062,
      "wärmung": 6063,
      "gefällt": 6064,
      "Statistiken": 6065,
      "äußerst": 6066,
      "Stattdessen": 6067,
      "Gute": 6068,
      "dungs": 6069,
      "fließen": 6070,
      "froh": 6071,
      "kognit": 6072,
      "my": 6073,
      "nungs": 6074,
      "rieren": 6075,
      "tauchen": 6076,
      "zir": 6077,
      "gewählt": 6078,
      "gende": 6079,
      "übernehmen": 6080,
      "überwinden": 6081,
      "jeweil": 6082,
      "gert": 6083,
      "diesel": 6084,
      "wirkliche": 6085,
      "Zufall": 6086,
      "flu": 6087,
      "Unterhaltung": 6088,
      "Momente": 6089,
      "leib": 6090,
      "scheidet": 6091,
      "Deswegen": 6092,
      "betrachte": 6093,
      "seid": 6094,
      "Fehl": 6095,
      "Links": 6096,
      "Schuld": 6097,
      "uropä": 6098,
      "gemeinsame": 6099,
      "Charles": 6100,
      "streben": 6101,
      "elektron": 6102,
      "positive": 6103,
      "Webseite": 6104,
      "Würde": 6105,
      "geregt": 6106,
      "Mehrheit": 6107,
      "batte": 6108,
      "veränderte": 6109,
      "gegenseitig": 6110,
      "Sobald": 6111,
      "Las": 6112,
      "burg": 6113,
      "hes": 6114,
      "junger": 6115,
      "altern": 6116,
      "verab": 6117,
      "verblü": 6118,
      "rote": 6119,
      "weißen": 6120,
      "heiß": 6121,
      "Stud": 6122,
      "bedeut": 6123,
      "iveau": 6124,
      "Überrasch": 6125,
      "Bibliothe": 6126,
      "Besuch": 6127,
      "speziell": 6128,
      "großartigen": 6129,
      "Stücke": 6130,
      "sorg": 6131,
      "Wirklich": 6132,
      "arbeitung": 6133,
      "sprozess": 6134,
      "anada": 6135,
      "Signale": 6136,
      "glaubte": 6137,
      "Erfindung": 6138,
      "Francisco": 6139,
      "Agen": 6140,
      "Dimensionen": 6141,
      "Fer": 6142,
      "Laut": 6143,
      "Soll": 6144,
      "Stern": 6145,
      "ael": 6146,
      "bra": 6147,
      "ehe": 6148,
      "gste": 6149,
      "karten": 6150,
      "lass": 6151,
      "schriften": 6152,
      "soviel": 6153,
      "Schicks": 6154,
      "lied": 6155,
      "ingern": 6156,
      "ziehung": 6157,
      "heisst": 6158,
      "okus": 6159,
      "fanten": 6160,
      "Grundlage": 6161,
      "Blumen": 6162,
      "funktionierte": 6163,
      "ipe": 6164,
      "Steve": 6165,
      "Vorteile": 6166,
      "Tour": 6167,
      "NASA": 6168,
      "verwandelt": 6169,
      "blaue": 6170,
      "Aktivitäten": 6171,
      "Jahrzehnt": 6172,
      "Gedächtnis": 6173,
      "internationale": 6174,
      "Ereignis": 6175,
      "akzeptieren": 6176,
      "Kenia": 6177,
      "Pakistan": 6178,
      "Fast": 6179,
      "Kabel": 6180,
      "Mess": 6181,
      "Wann": 6182,
      "beln": 6183,
      "isol": 6184,
      "kö": 6185,
      "Ähn": 6186,
      "äfte": 6187,
      "ök": 6188,
      "asie": 6189,
      "soft": 6190,
      "behör": 6191,
      "bevölkerung": 6192,
      "manchen": 6193,
      "enthalten": 6194,
      "Schlie": 6195,
      "dahinter": 6196,
      "Programme": 6197,
      "teils": 6198,
      "Immer": 6199,
      "ähne": 6200,
      "Musiker": 6201,
      "läss": 6202,
      "Folie": 6203,
      "Skulpt": 6204,
      "Küste": 6205,
      "Innovationen": 6206,
      "Billionen": 6207,
      "erhöhen": 6208,
      "Gemäl": 6209,
      "erweitern": 6210,
      "Bundes": 6211,
      "dieselben": 6212,
      "Dicht": 6213,
      "Klei": 6214,
      "Nase": 6215,
      "Roh": 6216,
      "Top": 6217,
      "Zer": 6218,
      "ippen": 6219,
      "klet": 6220,
      "pas": 6221,
      "wüs": 6222,
      "einst": 6223,
      "eingesch": 6224,
      "see": 6225,
      "Schritte": 6226,
      "Einstellung": 6227,
      "vieles": 6228,
      "adel": 6229,
      "flüss": 6230,
      "menschliches": 6231,
      "Informations": 6232,
      "Phot": 6233,
      "gesamt": 6234,
      "wissenschaftler": 6235,
      "Südafrika": 6236,
      "schreibt": 6237,
      "liebte": 6238,
      "fasziniert": 6239,
      "Jahrzehnten": 6240,
      "Gibt": 6241,
      "städt": 6242,
      "Get": 6243,
      "Krä": 6244,
      "Welten": 6245,
      "bchen": 6246,
      "unkten": 6247,
      "stoffen": 6248,
      "stoßen": 6249,
      "angenommen": 6250,
      "ores": 6251,
      "legend": 6252,
      "bezüglich": 6253,
      "bern": 6254,
      "berichten": 6255,
      "Inspir": 6256,
      "voran": 6257,
      "Gemü": 6258,
      "gerung": 6259,
      "Lektion": 6260,
      "konsum": 6261,
      "konfront": 6262,
      "Zeitung": 6263,
      "weiterer": 6264,
      "spieler": 6265,
      "dienst": 6266,
      "Gebiete": 6267,
      "gangs": 6268,
      "Verbrechen": 6269,
      "freie": 6270,
      "ähnlichen": 6271,
      "schaue": 6272,
      "Gesichter": 6273,
      "medizinischen": 6274,
      "positiv": 6275,
      "Säuget": 6276,
      "automatisch": 6277,
      "Chicago": 6278,
      "Alex": 6279,
      "Damen": 6280,
      "Dunkel": 6281,
      "Ehr": 6282,
      "diger": 6283,
      "eur": 6284,
      "fakt": 6285,
      "ga": 6286,
      "kol": 6287,
      "kalt": 6288,
      "ukle": 6289,
      "zz": 6290,
      "derer": 6291,
      "ativer": 6292,
      "lem": 6293,
      "bekomme": 6294,
      "sprü": 6295,
      "Stahl": 6296,
      "halts": 6297,
      "liefert": 6298,
      "besitzt": 6299,
      "bstoff": 6300,
      "schlug": 6301,
      "extra": 6302,
      "utete": 6303,
      "Phase": 6304,
      "unglaublichen": 6305,
      "Gottes": 6306,
      "gründen": 6307,
      "ränkt": 6308,
      "zipl": 6309,
      "Erdbe": 6310,
      "Sympt": 6311,
      "Terrorismus": 6312,
      "dauerte": 6313,
      "Tief": 6314,
      "Geburtstag": 6315,
      "Achse": 6316,
      "Kirche": 6317,
      "Untersuchung": 6318,
      "Restaurant": 6319,
      "Literatur": 6320,
      "Russland": 6321,
      "Mult": 6322,
      "Pra": 6323,
      "Vi": 6324,
      "digkeit": 6325,
      "hor": 6326,
      "einhalb": 6327,
      "auern": 6328,
      "legten": 6329,
      "itzer": 6330,
      "isierte": 6331,
      "ettet": 6332,
      "überlegen": 6333,
      "haltig": 6334,
      "hnte": 6335,
      "Nachhalt": 6336,
      "willst": 6337,
      "losigkeit": 6338,
      "Überzeug": 6339,
      "jener": 6340,
      "Darwin": 6341,
      "falschen": 6342,
      "Wirkung": 6343,
      "organisieren": 6344,
      "Männchen": 6345,
      "Fortschritte": 6346,
      "Michael": 6347,
      "22": 6348,
      "Bur": 6349,
      "Mr": 6350,
      "Micro": 6351,
      "Zerstör": 6352,
      "dunkel": 6353,
      "iPh": 6354,
      "lager": 6355,
      "ansieht": 6356,
      "abstra": 6357,
      "bezeichnen": 6358,
      "weist": 6359,
      "breite": 6360,
      "igend": 6361,
      "osh": 6362,
      "finan": 6363,
      "ücke": 6364,
      "Vorstellungen": 6365,
      "besseres": 6366,
      "nerv": 6367,
      "2010": 6368,
      "Absicht": 6369,
      "wandeln": 6370,
      "grundsätzlich": 6371,
      "Elefanten": 6372,
      "rett": 6373,
      "tausenden": 6374,
      "Ohne": 6375,
      "stärk": 6376,
      "Trick": 6377,
      "Führer": 6378,
      "Kameras": 6379,
      "Völker": 6380,
      "digitale": 6381,
      "behaupten": 6382,
      "überraschend": 6383,
      "Zunächst": 6384,
      "Angeles": 6385,
      "Male": 6386,
      "Nutzung": 6387,
      "Okt": 6388,
      "Sl": 6389,
      "Skel": 6390,
      "gol": 6391,
      "nern": 6392,
      "osen": 6393,
      "sign": 6394,
      "utern": 6395,
      "anfing": 6396,
      "gebraucht": 6397,
      "ley": 6398,
      "sowas": 6399,
      "unglück": 6400,
      "Unfall": 6401,
      "menge": 6402,
      "ney": 6403,
      "andert": 6404,
      "dargestellt": 6405,
      "Dazu": 6406,
      "Dafür": 6407,
      "Weiter": 6408,
      "quelle": 6409,
      "weiße": 6410,
      "starben": 6411,
      "Gegenwart": 6412,
      "Kapitel": 6413,
      "Sternen": 6414,
      "Hindern": 6415,
      "förm": 6416,
      "Prinzipien": 6417,
      "Früh": 6418,
      "grünen": 6419,
      "Wettbewerb": 6420,
      "Amazon": 6421,
      "Nigeria": 6422,
      "Adam": 6423,
      "Mio": 6424,
      "Meister": 6425,
      "Pri": 6426,
      "Tit": 6427,
      "Ven": 6428,
      "Wär": 6429,
      "Wagen": 6430,
      "[\"": 6431,
      "bom": 6432,
      "wald": 6433,
      "unruh": 6434,
      "ichen": 6435,
      "arkt": 6436,
      "verschl": 6437,
      "aufgewachsen": 6438,
      "rest": 6439,
      "ison": 6440,
      "warf": 6441,
      "önt": 6442,
      "beibringen": 6443,
      "wofür": 6444,
      "iertes": 6445,
      "hinunter": 6446,
      "durchführen": 6447,
      "unteren": 6448,
      "Aussage": 6449,
      "Gemeinschaften": 6450,
      "verknü": 6451,
      "region": 6452,
      "antwortet": 6453,
      "antwortete": 6454,
      "hilf": 6455,
      "perfekte": 6456,
      "Symbol": 6457,
      "Löcher": 6458,
      "beispielsweise": 6459,
      "Teenager": 6460,
      "Wechsel": 6461,
      "27": 6462,
      "Aktion": 6463,
      "Ohren": 6464,
      "RI": 6465,
      "Voll": 6466,
      "kal": 6467,
      "use": 6468,
      "vit": 6469,
      "zuge": 6470,
      "Schwer": 6471,
      "Arab": 6472,
      "Bevor": 6473,
      "Bevölker": 6474,
      "Spann": 6475,
      "durchzu": 6476,
      "Ausstellung": 6477,
      "Unterricht": 6478,
      "Chancen": 6479,
      "sichtbar": 6480,
      "strö": 6481,
      "Afrikas": 6482,
      "Pflege": 6483,
      "biologische": 6484,
      "strate": 6485,
      "beobachte": 6486,
      "schwarzen": 6487,
      "verschwunden": 6488,
      "Kilo": 6489,
      "Ast": 6490,
      "Kanada": 6491,
      "Mama": 6492,
      "Win": 6493,
      "dliche": 6494,
      "ep": 6495,
      "europä": 6496,
      "erwachsen": 6497,
      "orte": 6498,
      "bezogen": 6499,
      "eth": 6500,
      "überein": 6501,
      "Verstehen": 6502,
      "zepte": 6503,
      "geschaut": 6504,
      "Sequenz": 6505,
      "quer": 6506,
      "Expl": 6507,
      "Bericht": 6508,
      "löst": 6509,
      "issionen": 6510,
      "fällen": 6511,
      "folgenden": 6512,
      "speziellen": 6513,
      "bemerkte": 6514,
      "gemeinsamen": 6515,
      "lokale": 6516,
      "moralische": 6517,
      "erhöht": 6518,
      "Asien": 6519,
      "Armee": 6520,
      "bücher": 6521,
      "Resultat": 6522,
      "Budget": 6523,
      "besorgt": 6524,
      "Vorstellungskraft": 6525,
      "Präsentation": 6526,
      "Ap": 6527,
      "DH": 6528,
      "Koll": 6529,
      "Rett": 6530,
      "Tru": 6531,
      "bir": 6532,
      "bungen": 6533,
      "ku": 6534,
      "kräfte": 6535,
      "zert": 6536,
      "geholfen": 6537,
      "wirft": 6538,
      "umher": 6539,
      "mitglie": 6540,
      "mant": 6541,
      "Stan": 6542,
      "gespr": 6543,
      "reibung": 6544,
      "Annahme": 6545,
      "üssen": 6546,
      "formt": 6547,
      "suche": 6548,
      "zweimal": 6549,
      "aka": 6550,
      "Computern": 6551,
      "ics": 6552,
      "fäll": 6553,
      "Darstellung": 6554,
      "blicken": 6555,
      "grosse": 6556,
      "kostenlos": 6557,
      "Alters": 6558,
      "Wachstums": 6559,
      "Magie": 6560,
      "physikal": 6561,
      "schuldig": 6562,
      "Status": 6563,
      "film": 6564,
      "Märkte": 6565,
      "Widerstand": 6566,
      "cyc": 6567,
      "super": 6568,
      "sogenannte": 6569,
      "afrikanischen": 6570,
      "Epidemie": 6571,
      "Nachhaltigkeit": 6572,
      "Ah": 6573,
      "Center": 6574,
      "Fi": 6575,
      "Jung": 6576,
      "Noten": 6577,
      "Treib": 6578,
      "Wh": 6579,
      "cm": 6580,
      "punkte": 6581,
      "richtet": 6582,
      "ta": 6583,
      "ymp": 6584,
      "enten": 6585,
      "unver": 6586,
      "einiges": 6587,
      "achter": 6588,
      "solange": 6589,
      "vergröß": 6590,
      "amour": 6591,
      "repar": 6592,
      "stechn": 6593,
      "male": 6594,
      "Mittag": 6595,
      "zwungen": 6596,
      "ordin": 6597,
      "offenen": 6598,
      "Symm": 6599,
      "Strand": 6600,
      "ständige": 6601,
      "komplexen": 6602,
      "verschm": 6603,
      "Jahrzehnte": 6604,
      "grüne": 6605,
      "nannten": 6606,
      "nitten": 6607,
      "Entfernung": 6608,
      "genügend": 6609,
      "Schließlich": 6610,
      "Beit": 6611,
      "Dial": 6612,
      "Machen": 6613,
      "Ost": 6614,
      "Sm": 6615,
      "Samen": 6616,
      "fair": 6617,
      "tats": 6618,
      "wn": 6619,
      "Ära": 6620,
      "erweiter": 6621,
      "able": 6622,
      "Schäd": 6623,
      "Verwand": 6624,
      "Anstatt": 6625,
      "darstellt": 6626,
      "Rezept": 6627,
      "wurf": 6628,
      "Span": 6629,
      "Weltkrieg": 6630,
      "blind": 6631,
      "provis": 6632,
      "selbstverständlich": 6633,
      "echnet": 6634,
      "starken": 6635,
      "Debatte": 6636,
      "Kredit": 6637,
      "wunderschön": 6638,
      "Versuche": 6639,
      "Rechts": 6640,
      "kontrolliert": 6641,
      "leistungen": 6642,
      "niedrig": 6643,
      "Faktor": 6644,
      "profession": 6645,
      "Tube": 6646,
      "beteiligt": 6647,
      "stoppen": 6648,
      "material": 6649,
      "Wikipe": 6650,
      "Schicksal": 6651,
      "\"]": 6652,
      "Mem": 6653,
      "Räume": 6654,
      "cin": 6655,
      "dler": 6656,
      "erin": 6657,
      "schmerz": 6658,
      "betroffen": 6659,
      "lenken": 6660,
      "werten": 6661,
      "Schalt": 6662,
      "woher": 6663,
      "half": 6664,
      "zenz": 6665,
      "ruckt": 6666,
      "fektion": 6667,
      "Grippe": 6668,
      "trat": 6669,
      "lebendig": 6670,
      "zwingen": 6671,
      "worauf": 6672,
      "Abfall": 6673,
      "196": 6674,
      "Regionen": 6675,
      "Regierungs": 6676,
      "Boston": 6677,
      "Quellen": 6678,
      "2007": 6679,
      "Paris": 6680,
      "Parad": 6681,
      "ordentlich": 6682,
      "Eigent": 6683,
      "General": 6684,
      "Gesichts": 6685,
      "langsamer": 6686,
      "konzentriert": 6687,
      "Motiv": 6688,
      "Schweden": 6689,
      "versteckt": 6690,
      "Sonnenlicht": 6691,
      "leistung": 6692,
      "leistungs": 6693,
      "Nervenz": 6694,
      "Geräusche": 6695,
      "wünschte": 6696,
      "Ereignisse": 6697,
      "Marketing": 6698,
      "Klassenzimmer": 6699,
      "Bomben": 6700,
      "Homo": 6701,
      "Erwartungen": 6702,
      "Flie": 6703,
      "Hal": 6704,
      "Hat": 6705,
      "MA": 6706,
      "Mel": 6707,
      "dick": 6708,
      "ftet": 6709,
      "nommen": 6710,
      "vater": 6711,
      "walt": 6712,
      "wisst": 6713,
      "chtern": 6714,
      "unabhäng": 6715,
      "anhand": 6716,
      "voneinander": 6717,
      "wartet": 6718,
      "ions": 6719,
      "Schaden": 6720,
      "bricht": 6721,
      "Argument": 6722,
      "unterrichten": 6723,
      "same": 6724,
      "kamer": 6725,
      "Wegen": 6726,
      "heilen": 6727,
      "teilweise": 6728,
      "Weis": 6729,
      "Handys": 6730,
      "Box": 6731,
      "Presse": 6732,
      "Haar": 6733,
      "Wahrscheinlich": 6734,
      "bildet": 6735,
      "betreiben": 6736,
      "Ruhe": 6737,
      "Anders": 6738,
      "bedeutend": 6739,
      "athie": 6740,
      "Ingenieur": 6741,
      "Ernährung": 6742,
      "Hunderte": 6743,
      "Hypot": 6744,
      "Geschenk": 6745,
      "tatsäch": 6746,
      "1000": 6747,
      "Beute": 6748,
      "Gal": 6749,
      "Mand": 6750,
      "bot": 6751,
      "mor": 6752,
      "ses": 6753,
      "stör": 6754,
      "teur": 6755,
      "gelegen": 6756,
      "hrt": 6757,
      "oret": 6758,
      "verhält": 6759,
      "verglichen": 6760,
      "verdient": 6761,
      "vorbereitet": 6762,
      "nachgedacht": 6763,
      "geleitet": 6764,
      "Aufnahmen": 6765,
      "zusammenarbeiten": 6766,
      "qual": 6767,
      "einzeln": 6768,
      "sicherheit": 6769,
      "Schlacht": 6770,
      "nett": 6771,
      "ifiz": 6772,
      "Große": 6773,
      "Sub": 6774,
      "häuser": 6775,
      "wohnt": 6776,
      "Freiwill": 6777,
      "täglichen": 6778,
      "Treffen": 6779,
      "Nerven": 6780,
      "Street": 6781,
      "Antibiot": 6782,
      "Frankreich": 6783,
      "YouTube": 6784,
      "Wikipedia": 6785,
      "CD": 6786,
      "Futter": 6787,
      "Wen": 6788,
      "del": 6789,
      "ugen": 6790,
      "viert": 6791,
      "erei": 6792,
      "station": 6793,
      "gewä": 6794,
      "itten": 6795,
      "seher": 6796,
      "reagiert": 6797,
      "ausgesetzt": 6798,
      "fürs": 6799,
      "Schicht": 6800,
      "besessen": 6801,
      "End": 6802,
      "einfaches": 6803,
      "gefl": 6804,
      "wiederholen": 6805,
      "Mittler": 6806,
      "okuss": 6807,
      "leihen": 6808,
      "Klar": 6809,
      "Extre": 6810,
      "University": 6811,
      "Spielzeug": 6812,
      "linie": 6813,
      "Atlant": 6814,
      "traurig": 6815,
      "Proteine": 6816,
      "züge": 6817,
      "veröffentlich": 6818,
      "Physiker": 6819,
      "reduziert": 6820,
      "glaubten": 6821,
      "gekauft": 6822,
      "Repu": 6823,
      "begegnen": 6824,
      "Verbreitung": 6825,
      "vergangenen": 6826,
      "weshalb": 6827,
      "ollywood": 6828,
      "Chaos": 6829,
      "iPhone": 6830,
      "Ac": 6831,
      "Fokus": 6832,
      "GPS": 6833,
      "Pho": 6834,
      "Witz": 6835,
      "mischen": 6836,
      "sur": 6837,
      "vin": 6838,
      "yl": 6839,
      "erw": 6840,
      "derselben": 6841,
      "schiff": 6842,
      "schock": 6843,
      "bewirken": 6844,
      "werken": 6845,
      "Anführer": 6846,
      "rüstung": 6847,
      "heorie": 6848,
      "klei": 6849,
      "illen": 6850,
      "geschwindigkeit": 6851,
      "gebiet": 6852,
      "hof": 6853,
      "altes": 6854,
      "Teilnehmer": 6855,
      "Kindes": 6856,
      "grundlegend": 6857,
      "Darauf": 6858,
      "Diabet": 6859,
      "Zweifel": 6860,
      "gewöhnliche": 6861,
      "Teams": 6862,
      "Elektron": 6863,
      "winkel": 6864,
      "veröffentlichen": 6865,
      "knall": 6866,
      "ernsthaft": 6867,
      "scheinend": 6868,
      "Krieges": 6869,
      "trug": 6870,
      "Depression": 6871,
      "BIP": 6872,
      "Persönlichkeit": 6873,
      "ieinhalb": 6874,
      "Zerstörung": 6875,
      "BG": 6876,
      "DA": 6877,
      "Feind": 6878,
      "Kart": 6879,
      "Lam": 6880,
      "evolution": 6881,
      "fliegt": 6882,
      "äden": 6883,
      "erneut": 6884,
      "unmittel": 6885,
      "anschaut": 6886,
      "Schle": 6887,
      "Schätz": 6888,
      "herz": 6889,
      "Verkauf": 6890,
      "ience": 6891,
      "Angeb": 6892,
      "Zeitraum": 6893,
      "zielen": 6894,
      "geschnitten": 6895,
      "neugier": 6896,
      "lebenden": 6897,
      "Flüss": 6898,
      "irgendeine": 6899,
      "insbesondere": 6900,
      "weltweiten": 6901,
      "mittels": 6902,
      "wenigstens": 6903,
      "folgendes": 6904,
      "Amerikan": 6905,
      "rechnen": 6906,
      "genießen": 6907,
      "sexuelle": 6908,
      "Potenzial": 6909,
      "bemerkenswert": 6910,
      "katastrop": 6911,
      "Optim": 6912,
      "damerika": 6913,
      "Cyber": 6914,
      "Aspekte": 6915,
      "Kleidung": 6916,
      "Bevölkerungs": 6917,
      "Dör": 6918,
      "PA": 6919,
      "back": 6920,
      "hind": 6921,
      "oberfläche": 6922,
      "risk": 6923,
      "sc": 6924,
      "ergeben": 6925,
      "intellekt": 6926,
      "stir": 6927,
      "lichkeiten": 6928,
      "aufnahme": 6929,
      "annte": 6930,
      "omas": 6931,
      "Schach": 6932,
      "gesucht": 6933,
      "hinauf": 6934,
      "mehreren": 6935,
      "kont": 6936,
      "stero": 6937,
      "letzter": 6938,
      "Fläche": 6939,
      "versorgen": 6940,
      "weißt": 6941,
      "schließt": 6942,
      "Biom": 6943,
      "2005": 6944,
      "bilder": 6945,
      "Kurve": 6946,
      "träge": 6947,
      "respekt": 6948,
      "verursachen": 6949,
      "problem": 6950,
      "Hilfs": 6951,
      "Algorithmen": 6952,
      "getrennt": 6953,
      "Schnee": 6954,
      "ponent": 6955,
      "momentan": 6956,
      "250": 6957,
      "Akte": 6958,
      "Dokument": 6959,
      "Knie": 6960,
      "SMS": 6961,
      "Taschen": 6962,
      "Up": 6963,
      "dat": 6964,
      "dokument": 6965,
      "fran": 6966,
      "ih": 6967,
      "king": 6968,
      "vi": 6969,
      "Äl": 6970,
      "anischen": 6971,
      "beenden": 6972,
      "verstär": 6973,
      "revolution": 6974,
      "Scham": 6975,
      "Inseln": 6976,
      "Initi": 6977,
      "vorsichtig": 6978,
      "wovon": 6979,
      "gerichtet": 6980,
      "Level": 6981,
      "finder": 6982,
      "geschäft": 6983,
      "izont": 6984,
      "adung": 6985,
      "woran": 6986,
      "irgendjemand": 6987,
      "ktiven": 6988,
      "Heut": 6989,
      "basierend": 6990,
      "korre": 6991,
      "Heim": 6992,
      "hinzufügen": 6993,
      "Hühn": 6994,
      "begrenzt": 6995,
      "Ingenieure": 6996,
      "Entdeckungen": 6997,
      "Analyse": 6998,
      "ffizienz": 6999,
      "Instrumente": 7000,
      "ursprünglich": 7001,
      "Flagge": 7002,
      "Konsequenzen": 7003,
      "gesammelt": 7004,
      "Gemälde": 7005,
      "Gemüse": 7006,
      "Bord": 7007,
      "Cart": 7008,
      "Pen": 7009,
      "azin": 7010,
      "gül": 7011,
      "koh": 7012,
      "uft": 7013,
      "schicht": 7014,
      "schrieben": 7015,
      "onien": 7016,
      "zugeben": 7017,
      "atom": 7018,
      "leer": 7019,
      "berück": 7020,
      "aufgeregt": 7021,
      "Stäm": 7022,
      "allgemein": 7023,
      "Verfahren": 7024,
      "elles": 7025,
      "unterwegs": 7026,
      "Meere": 7027,
      "garant": 7028,
      "Kla": 7029,
      "bedeutete": 7030,
      "gestar": 7031,
      "Gerü": 7032,
      "verliert": 7033,
      "küste": 7034,
      "Metall": 7035,
      "eignet": 7036,
      "planen": 7037,
      "Island": 7038,
      "Sichtweise": 7039,
      "Sonnensystem": 7040,
      "knapp": 7041,
      "definiert": 7042,
      "kulturelle": 7043,
      "Willen": 7044,
      "umzugehen": 7045,
      "Tiefe": 7046,
      "experiment": 7047,
      "hieß": 7048,
      "Ägypten": 7049,
      "Rhyth": 7050,
      "Lebenserwart": 7051,
      "Erdbeben": 7052,
      "Astero": 7053,
      "BM": 7054,
      "Juni": 7055,
      "Misch": 7056,
      "Tauch": 7057,
      "Zy": 7058,
      "deiner": 7059,
      "ea": 7060,
      "effiz": 7061,
      "koll": 7062,
      "krä": 7063,
      "lasst": 7064,
      "tanzen": 7065,
      "eingeladen": 7066,
      "angeht": 7067,
      "alent": 7068,
      "verd": 7069,
      "verg": 7070,
      "Uns": 7071,
      "ward": 7072,
      "manip": 7073,
      "Schreiben": 7074,
      "Verlauf": 7075,
      "Arz": 7076,
      "klop": 7077,
      "gerettet": 7078,
      "gift": 7079,
      "obel": 7080,
      "icket": 7081,
      "Geschäfte": 7082,
      "ungssystem": 7083,
      "mack": 7084,
      "reicher": 7085,
      "Decke": 7086,
      "linien": 7087,
      "gemeinschaft": 7088,
      "hinterlassen": 7089,
      "schwierige": 7090,
      "Gebäuden": 7091,
      "höhere": 7092,
      "erforscht": 7093,
      "kaufte": 7094,
      "besuchte": 7095,
      "motor": 7096,
      "Erwachsene": 7097,
      "elektrische": 7098,
      "chemische": 7099,
      "Mobiltele": 7100,
      "niemanden": 7101,
      "ussendlich": 7102,
      "Inspiration": 7103,
      "Heutzutage": 7104,
      "Camp": 7105,
      "Fal": 7106,
      "Fert": 7107,
      "Lar": 7108,
      "Lat": 7109,
      "Prü": 7110,
      "Sing": 7111,
      "Sagen": 7112,
      "fone": 7113,
      "ilen": 7114,
      "künstler": 7115,
      "vierte": 7116,
      "Übr": 7117,
      "erfüllen": 7118,
      "eingeführt": 7119,
      "geteilt": 7120,
      "ora": 7121,
      "ory": 7122,
      "lehren": 7123,
      "seht": 7124,
      "bezeichnet": 7125,
      "versen": 7126,
      "späten": 7127,
      "ernä": 7128,
      "gering": 7129,
      "gerufen": 7130,
      "wem": 7131,
      "prozess": 7132,
      "schießen": 7133,
      "sterblichkeit": 7134,
      "fläche": 7135,
      "Mode": 7136,
      "Flügel": 7137,
      "dian": 7138,
      "rennen": 7139,
      "Gericht": 7140,
      "Darüber": 7141,
      "Richtungen": 7142,
      "Leiter": 7143,
      "Robert": 7144,
      "berflächen": 7145,
      "erfu": 7146,
      "erfassen": 7147,
      "Dame": 7148,
      "entscheidend": 7149,
      "Science": 7150,
      "zunehmend": 7151,
      "Psychologie": 7152,
      "Reaktionen": 7153,
      "Krimin": 7154,
      "spezielle": 7155,
      "Faktoren": 7156,
      "schläge": 7157,
      "Training": 7158,
      "Eisen": 7159,
      "Erinnern": 7160,
      "Überraschung": 7161,
      "Dsch": 7162,
      "Guten": 7163,
      "Laufen": 7164,
      "Ment": 7165,
      "Tur": 7166,
      "Toten": 7167,
      "ci": 7168,
      "fische": 7169,
      "erkennung": 7170,
      "ash": 7171,
      "zurecht": 7172,
      "beunruh": 7173,
      "verkehr": 7174,
      "verfolgt": 7175,
      "Schok": 7176,
      "brid": 7177,
      "klang": 7178,
      "Mangel": 7179,
      "begreifen": 7180,
      "akte": 7181,
      "exponent": 7182,
      "volles": 7183,
      "Autom": 7184,
      "2009": 7185,
      "Systems": 7186,
      "zentrale": 7187,
      "Chinesen": 7188,
      "drehte": 7189,
      "lernten": 7190,
      "magnet": 7191,
      "Yorker": 7192,
      "80ern": 7193,
      "Ruf": 7194,
      "sproble": 7195,
      "oberen": 7196,
      "inspirieren": 7197,
      "Terroristen": 7198,
      "begrenz": 7199,
      "Thomas": 7200,
      "winzig": 7201,
      "genetischen": 7202,
      "zufäll": 7203,
      "grundlegenden": 7204,
      "flekt": 7205,
      "eigentliche": 7206,
      "Trotzdem": 7207,
      "kümmert": 7208,
      "Weisheit": 7209,
      "26": 7210,
      "Dynam": 7211,
      "Ganzen": 7212,
      "Nähr": 7213,
      "deinem": 7214,
      "fokuss": 7215,
      "messer": 7216,
      "ris": 7217,
      "wid": 7218,
      "xis": 7219,
      "une": 7220,
      "anpassen": 7221,
      "eid": 7222,
      "beherr": 7223,
      "rollen": 7224,
      "ausser": 7225,
      "ausgeben": 7226,
      "entz": 7227,
      "Stimm": 7228,
      "Schau": 7229,
      "Erste": 7230,
      "Gebrauch": 7231,
      "brä": 7232,
      "Anstieg": 7233,
      "Aust": 7234,
      "gebunden": 7235,
      "Sour": 7236,
      "naja": 7237,
      "Aufbau": 7238,
      "zurückkehren": 7239,
      "Problems": 7240,
      "Herstellung": 7241,
      "Theorien": 7242,
      "Schuhe": 7243,
      "zeichnungen": 7244,
      "Berge": 7245,
      "wunderbaren": 7246,
      "anzusehen": 7247,
      "Obama": 7248,
      "Gegenden": 7249,
      "kreativen": 7250,
      "biologischen": 7251,
      "schreiten": 7252,
      "harte": 7253,
      "berühmt": 7254,
      "studiert": 7255,
      "Higgs": 7256,
      "Denkweise": 7257,
      "Normalerweise": 7258,
      "Plattform": 7259,
      "abilität": 7260,
      "ernähren": 7261,
      "800": 7262,
      "Glet": 7263,
      "PC": 7264,
      "Posit": 7265,
      "Pollen": 7266,
      "SP": 7267,
      "Tin": 7268,
      "Wil": 7269,
      "Wahlen": 7270,
      "ise": 7271,
      "ocken": 7272,
      "richte": 7273,
      "bekämpfen": 7274,
      "vorhin": 7275,
      "gesetz": 7276,
      "Versor": 7277,
      "Vergn": 7278,
      "nachhaltig": 7279,
      "Behin": 7280,
      "Konstru": 7281,
      "ünden": 7282,
      "Entschul": 7283,
      "Seh": 7284,
      "Flu": 7285,
      "dreidimension": 7286,
      "wahrnehmen": 7287,
      "interessanten": 7288,
      "Glü": 7289,
      "mittelt": 7290,
      "angemessen": 7291,
      "Hacker": 7292,
      "Afrikaner": 7293,
      "Pflan": 7294,
      "produktion": 7295,
      "holte": 7296,
      "Eigenschaft": 7297,
      "technischen": 7298,
      "sammlung": 7299,
      "Gleichgewicht": 7300,
      "organisiert": 7301,
      "Saal": 7302,
      "investiert": 7303,
      "Nachbarschaft": 7304,
      "Brustkrebs": 7305,
      "Innerhalb": 7306,
      "Kapitalismus": 7307,
      "schnittlich": 7308,
      "Projekten": 7309,
      "Vertei": 7310,
      "wörtlich": 7311,
      "Bedrohung": 7312,
      "Dunkelheit": 7313,
      "Klavier": 7314,
      "Cam": 7315,
      "Ghan": 7316,
      "Letzten": 7317,
      "Niveau": 7318,
      "Ritu": 7319,
      "Sur": 7320,
      "Zähne": 7321,
      "falten": 7322,
      "ias": 7323,
      "jet": 7324,
      "kopf": 7325,
      "lasse": 7326,
      "tier": 7327,
      "wil": 7328,
      "anges": 7329,
      "schritt": 7330,
      "denselben": 7331,
      "soweit": 7332,
      "veran": 7333,
      "isierten": 7334,
      "Scha": 7335,
      "Schö": 7336,
      "Schild": 7337,
      "breiten": 7338,
      "machst": 7339,
      "reißen": 7340,
      "Alp": 7341,
      "Aufl": 7342,
      "Block": 7343,
      "Weibchen": 7344,
      "aktive": 7345,
      "phil": 7346,
      "Reihen": 7347,
      "ffekte": 7348,
      "produkt": 7349,
      "Dipl": 7350,
      "Neugier": 7351,
      "bedro": 7352,
      "grossen": 7353,
      "gänger": 7354,
      "Früher": 7355,
      "Funktionen": 7356,
      "genetische": 7357,
      "vernün": 7358,
      "Angelegen": 7359,
      "Änderungen": 7360,
      "außergewöhnlich": 7361,
      "sogenannten": 7362,
      "diagnost": 7363,
      "Komponenten": 7364,
      "Bibliothek": 7365,
      "Diabetes": 7366,
      "Lebenserwartung": 7367,
      "Humor": 7368,
      "Läch": 7369,
      "Systemen": 7370,
      "TV": 7371,
      "dach": 7372,
      "hä": 7373,
      "kette": 7374,
      "misst": 7375,
      "neigen": 7376,
      "pum": 7377,
      "xid": 7378,
      "anhalten": 7379,
      "aumen": 7380,
      "tent": 7381,
      "its": 7382,
      "sozi": 7383,
      "begl": 7384,
      "ausreichen": 7385,
      "spart": 7386,
      "beigebracht": 7387,
      "Verwendung": 7388,
      "erneuer": 7389,
      "Proben": 7390,
      "Leber": 7391,
      "Reicht": 7392,
      "ossi": 7393,
      "konomen": 7394,
      "que": 7395,
      "Wasserstoff": 7396,
      "Plötzlich": 7397,
      "Aller": 7398,
      "Reisen": 7399,
      "Bibel": 7400,
      "jenen": 7401,
      "sym": 7402,
      "schwere": 7403,
      "Unternehmens": 7404,
      "molekul": 7405,
      "erklärte": 7406,
      "Ursprung": 7407,
      "Schulter": 7408,
      "ivileg": 7409,
      "Protein": 7410,
      "Katze": 7411,
      "visuelle": 7412,
      "stuhl": 7413,
      "fantastische": 7414,
      "Gespräche": 7415,
      "dankbar": 7416,
      "billig": 7417,
      "Mitglieder": 7418,
      "Stiftung": 7419,
      "Trend": 7420,
      "langweilig": 7421,
      "Italien": 7422,
      "verblüffen": 7423,
      "Antibiotika": 7424,
      "Source": 7425,
      "32": 7426,
      "Ba": 7427,
      "Nar": 7428,
      "Trei": 7429,
      "aster": 7430,
      "dis": 7431,
      "sau": 7432,
      "wellen": 7433,
      "zö": 7434,
      "erhe": 7435,
      "indet": 7436,
      "stunden": 7437,
      "anstelle": 7438,
      "zukommen": 7439,
      "mitnehmen": 7440,
      "indischen": 7441,
      "industr": 7442,
      "Schmerzen": 7443,
      "merkt": 7444,
      "iens": 7445,
      "Anruf": 7446,
      "Best": 7447,
      "Enkel": 7448,
      "Weltbevölkerung": 7449,
      "emin": 7450,
      "Konsum": 7451,
      "hoher": 7452,
      "worum": 7453,
      "Wissenschaftlern": 7454,
      "Sprung": 7455,
      "Großen": 7456,
      "Designs": 7457,
      "Subst": 7458,
      "ländlichen": 7459,
      "drücke": 7460,
      "Partei": 7461,
      "Fahrer": 7462,
      "schickte": 7463,
      "Hinblick": 7464,
      "metho": 7465,
      "Drucker": 7466,
      "ruhig": 7467,
      "Schwarz": 7468,
      "Inneren": 7469,
      "chinesische": 7470,
      "Privatsphäre": 7471,
      "Szene": 7472,
      "Direkt": 7473,
      "Batterie": 7474,
      "Spektrum": 7475,
      "berechnen": 7476,
      "heiratet": 7477,
      "Januar": 7478,
      "Wälder": 7479,
      "Symptome": 7480,
      "Microsoft": 7481,
      "hindurch": 7482,
      "stirbt": 7483,
      "gestartet": 7484,
      "Bay": 7485,
      "Fein": 7486,
      "Hu": 7487,
      "Kommen": 7488,
      "Rö": 7489,
      "Rönt": 7490,
      "Wäre": 7491,
      "comp": 7492,
      "iness": 7493,
      "stammen": 7494,
      "anc": 7495,
      "org": 7496,
      "abor": 7497,
      "ros": 7498,
      "ausmachen": 7499,
      "fürchte": 7500,
      "gesunden": 7501,
      "Einsch": 7502,
      "Einrichtungen": 7503,
      "besucht": 7504,
      "vielfäl": 7505,
      "ota": 7506,
      "ots": 7507,
      "durchschnittlich": 7508,
      "projekt": 7509,
      "appt": 7510,
      "interpret": 7511,
      "Umständen": 7512,
      "beschreibt": 7513,
      "Überwach": 7514,
      "ischerweise": 7515,
      "Haiti": 7516,
      "fällig": 7517,
      "Richtige": 7518,
      "sorge": 7519,
      "gründete": 7520,
      "Emissionen": 7521,
      "benötig": 7522,
      "stücke": 7523,
      "Industr": 7524,
      "Investitionen": 7525,
      "dunklen": 7526,
      "Alternative": 7527,
      "regelmäßig": 7528,
      "univers": 7529,
      "Katastrophe": 7530,
      "Mosk": 7531,
      "Sensoren": 7532,
      "Chirur": 7533,
      "konfrontiert": 7534,
      "Mig": 7535,
      "Täu": 7536,
      "Vag": 7537,
      "brech": 7538,
      "heuer": 7539,
      "human": 7540,
      "pal": 7541,
      "rö": 7542,
      "Ökonomen": 7543,
      "“.": 7544,
      "char": 7545,
      "inal": 7546,
      "schten": 7547,
      "gem": 7548,
      "gemessen": 7549,
      "gezwungen": 7550,
      "ates": 7551,
      "atik": 7552,
      "reale": 7553,
      "imal": 7554,
      "waschen": 7555,
      "ikations": 7556,
      "Prozesse": 7557,
      "vielmehr": 7558,
      "saßen": 7559,
      "gewann": 7560,
      "gefasst": 7561,
      "geblieben": 7562,
      "Kongo": 7563,
      "schnei": 7564,
      "packen": 7565,
      "zwang": 7566,
      "teilten": 7567,
      "Abhäng": 7568,
      "1960": 7569,
      "1990": 7570,
      "menschlich": 7571,
      "Universitäten": 7572,
      "dire": 7573,
      "Haie": 7574,
      "verschiedener": 7575,
      "Atomen": 7576,
      "Feed": 7577,
      "glücklicher": 7578,
      "ständigen": 7579,
      "Neuigkeiten": 7580,
      "häuf": 7581,
      "berühren": 7582,
      "melzen": 7583,
      "höchsten": 7584,
      "schlägt": 7585,
      "Serie": 7586,
      "install": 7587,
      "schnitts": 7588,
      "Zurück": 7589,
      "wütend": 7590,
      "fließt": 7591,
      "identifizieren": 7592,
      "nervös": 7593,
      "Explos": 7594,
      "Vergnügen": 7595,
      "120": 7596,
      "29": 7597,
      "Acht": 7598,
      "Bier": 7599,
      "Euch": 7600,
      "Moder": 7601,
      "Paz": 7602,
      "Sar": 7603,
      "Serv": 7604,
      "Sorge": 7605,
      "baum": 7606,
      "fache": 7607,
      "hassen": 7608,
      "tung": 7609,
      "öfter": 7610,
      "erinner": 7611,
      "eisen": 7612,
      "schar": 7613,
      "schäd": 7614,
      "befreien": 7615,
      "verur": 7616,
      "aufgaben": 7617,
      "könne": 7618,
      "Gefangen": 7619,
      "klingen": 7620,
      "landet": 7621,
      "grenzen": 7622,
      "heiraten": 7623,
      "zurückgehen": 7624,
      "digital": 7625,
      "wahrschein": 7626,
      "Techniken": 7627,
      "stimmung": 7628,
      "standard": 7629,
      "handel": 7630,
      "Autismus": 7631,
      "verläss": 7632,
      "Tee": 7633,
      "politisch": 7634,
      "Chef": 7635,
      "gänge": 7636,
      "Kuh": 7637,
      "seltsame": 7638,
      "Diagnose": 7639,
      "lächer": 7640,
      "bewahren": 7641,
      "Figur": 7642,
      "ränkungen": 7643,
      "Prototypen": 7644,
      "Klinik": 7645,
      "Belohnung": 7646,
      "Skelett": 7647,
      "Ghana": 7648,
      "Röntgen": 7649,
      "700": 7650,
      "95": 7651,
      "Effizienz": 7652,
      "Hard": 7653,
      "Kle": 7654,
      "Näch": 7655,
      "Oberflächen": 7656,
      "Wander": 7657,
      "fassung": 7658,
      "häss": 7659,
      "iam": 7660,
      "sh": 7661,
      "sub": 7662,
      "zit": 7663,
      "ino": 7664,
      "strä": 7665,
      "testet": 7666,
      "deckt": 7667,
      "verpf": 7668,
      "islam": 7669,
      "etik": 7670,
      "wieviel": 7671,
      "Stick": 7672,
      "Intu": 7673,
      "dazwischen": 7674,
      "wehr": 7675,
      "beseit": 7676,
      "wässer": 7677,
      "alley": 7678,
      "musikal": 7679,
      "Dadurch": 7680,
      "Metern": 7681,
      "flog": 7682,
      "Ausnahme": 7683,
      "ppich": 7684,
      "letzt": 7685,
      "änderte": 7686,
      "heimer": 7687,
      "packt": 7688,
      "Impul": 7689,
      "Studio": 7690,
      "Marke": 7691,
      "Jack": 7692,
      "zeichnete": 7693,
      "besonderen": 7694,
      "frühe": 7695,
      "Speicher": 7696,
      "Polio": 7697,
      "spiritu": 7698,
      "Küche": 7699,
      "Erfolgs": 7700,
      "physische": 7701,
      "Mathematiker": 7702,
      "Würden": 7703,
      "winzigen": 7704,
      "probiert": 7705,
      "kaputt": 7706,
      "Kreislauf": 7707,
      "Strategien": 7708,
      "Delfin": 7709,
      "Einfachheit": 7710,
      "infiziert": 7711,
      "ziplin": 7712,
      "französ": 7713,
      "28": 7714,
      "AB": 7715,
      "Daumen": 7716,
      "Eur": 7717,
      "Frie": 7718,
      "Fundament": 7719,
      "Hitze": 7720,
      "LA": 7721,
      "Mamm": 7722,
      "Nobel": 7723,
      "Pas": 7724,
      "Zie": 7725,
      "deln": 7726,
      "iP": 7727,
      "keines": 7728,
      "kord": 7729,
      "sun": 7730,
      "behin": 7731,
      "stete": 7732,
      "Stil": 7733,
      "gesundheit": 7734,
      "Verlangen": 7735,
      "Spinnen": 7736,
      "echtes": 7737,
      "gebiete": 7738,
      "Medium": 7739,
      "Vorschlag": 7740,
      "Blätter": 7741,
      "hai": 7742,
      "Gebur": 7743,
      "Marken": 7744,
      "Geruch": 7745,
      "ordnet": 7746,
      "Phant": 7747,
      "Muskel": 7748,
      "Muskeln": 7749,
      "Brun": 7750,
      "freiwill": 7751,
      "Beton": 7752,
      "Organismus": 7753,
      "Chrom": 7754,
      "Transpar": 7755,
      "schließend": 7756,
      "höheren": 7757,
      "Knopf": 7758,
      "erwähnen": 7759,
      "moralischen": 7760,
      "Peter": 7761,
      "Mails": 7762,
      "jünger": 7763,
      "Mitglied": 7764,
      "Sechs": 7765,
      "Tragö": 7766,
      "kohol": 7767,
      "Schokol": 7768,
      "Glüh": 7769,
      "Pflanze": 7770,
      "%.": 7771,
      "33": 7772,
      "Brit": 7773,
      "Base": 7774,
      "Kos": 7775,
      "Last": 7776,
      "Therap": 7777,
      "Vie": 7778,
      "Wut": 7779,
      "brochen": 7780,
      "cle": 7781,
      "frustr": 7782,
      "kg": 7783,
      "zo": 7784,
      "steine": 7785,
      "derm": 7786,
      "bemü": 7787,
      "ight": 7788,
      "reflekt": 7789,
      "sichern": 7790,
      "bran": 7791,
      "Anpass": 7792,
      "geraten": 7793,
      "Energ": 7794,
      "äufer": 7795,
      "chester": 7796,
      "trennen": 7797,
      "ologischer": 7798,
      "fressen": 7799,
      "Vorgang": 7800,
      "wahren": 7801,
      "teilte": 7802,
      "irgendeinem": 7803,
      "195": 7804,
      "Karik": 7805,
      "jenem": 7806,
      "wunderschöne": 7807,
      "riesiges": 7808,
      "Fahrzeug": 7809,
      "Schwestern": 7810,
      "Apple": 7811,
      "Medikamenten": 7812,
      "operation": 7813,
      "Gipfel": 7814,
      "Liebling": 7815,
      "mittleren": 7816,
      "elektrischen": 7817,
      "militär": 7818,
      "gewandt": 7819,
      "Konsumenten": 7820,
      "Konflikte": 7821,
      "Philosophie": 7822,
      "Gletscher": 7823,
      "Abl": 7824,
      "Act": 7825,
      "Bob": 7826,
      "Bran": 7827,
      "Benz": 7828,
      "Cr": 7829,
      "Ky": 7830,
      "NG": 7831,
      "Ohr": 7832,
      "Rel": 7833,
      "car": 7834,
      "ender": 7835,
      "anscheinend": 7836,
      "geheim": 7837,
      "abl": 7838,
      "romant": 7839,
      "benutze": 7840,
      "mitzu": 7841,
      "ktoren": 7842,
      "ikale": 7843,
      "Indem": 7844,
      "womit": 7845,
      "geräte": 7846,
      "rufe": 7847,
      "lebende": 7848,
      "Aufstieg": 7849,
      "Flächen": 7850,
      "Flasche": 7851,
      "insgesamt": 7852,
      "Woher": 7853,
      "ict": 7854,
      "ordnen": 7855,
      "hälter": 7856,
      "Komm": 7857,
      "wundervolle": 7858,
      "spezial": 7859,
      "kreative": 7860,
      "Joe": 7861,
      "Party": 7862,
      "Höhlen": 7863,
      "Tränen": 7864,
      "Präsidenten": 7865,
      "Füße": 7866,
      "Bedürfnis": 7867,
      "Organe": 7868,
      "Salz": 7869,
      "ignorieren": 7870,
      "feiern": 7871,
      "Pinguine": 7872,
      "Anwendungen": 7873,
      "Ursache": 7874,
      "Wärme": 7875,
      "Stanford": 7876,
      "reparieren": 7877,
      "neugierig": 7878,
      "Carto": 7879,
      "Chromoso": 7880,
      "Ehre": 7881,
      "Mad": 7882,
      "Nat": 7883,
      "Preise": 7884,
      "Rollen": 7885,
      "Tasche": 7886,
      "Therapie": 7887,
      "gin": 7888,
      "hell": 7889,
      "pu": 7890,
      "invol": 7891,
      "stil": 7892,
      "stamm": 7893,
      "stoß": 7894,
      "ela": 7895,
      "istin": 7896,
      "umso": 7897,
      "splant": 7898,
      "Schon": 7899,
      "meter": 7900,
      "Anstren": 7901,
      "sonder": 7902,
      "echter": 7903,
      "Flor": 7904,
      "waffen": 7905,
      "Nachfrage": 7906,
      "aktuelle": 7907,
      "kurs": 7908,
      "Biologen": 7909,
      "schwerer": 7910,
      "wertvoll": 7911,
      "Schweine": 7912,
      "afel": 7913,
      "Leid": 7914,
      "gewöhnt": 7915,
      "Gleichung": 7916,
      "kleinere": 7917,
      "nebenbei": 7918,
      "Abenteuer": 7919,
      "mittlerweile": 7920,
      "Erzähl": 7921,
      "wandern": 7922,
      "Nutzer": 7923,
      "analysieren": 7924,
      "Jedenfalls": 7925,
      "explod": 7926,
      "effizient": 7927,
      "Transparenz": 7928,
      "CE": 7929,
      "Cap": 7930,
      "Dopp": 7931,
      "Fron": 7932,
      "Göt": 7933,
      "Hon": 7934,
      "Kand": 7935,
      "Mor": 7936,
      "Mün": 7937,
      "Mak": 7938,
      "ades": 7939,
      "japan": 7940,
      "pop": 7941,
      "ym": 7942,
      "unehmen": 7943,
      "eingehen": 7944,
      "ire": 7945,
      "gelang": 7946,
      "argument": 7947,
      "abgesehen": 7948,
      "beru": 7949,
      "verarbeiten": 7950,
      "ausgehen": 7951,
      "entschl": 7952,
      "jekten": 7953,
      "nachdenkt": 7954,
      "Bedarf": 7955,
      "ächer": 7956,
      "Konzentr": 7957,
      "beitragen": 7958,
      "heimlich": 7959,
      "exakt": 7960,
      "größe": 7961,
      "kunst": 7962,
      "Mannes": 7963,
      "offene": 7964,
      "Prin": 7965,
      "sozialer": 7966,
      "Brut": 7967,
      "Katzen": 7968,
      "empfinden": 7969,
      "staaten": 7970,
      "kulturellen": 7971,
      "Kugel": 7972,
      "höchste": 7973,
      "Höhepunkt": 7974,
      "traditionelle": 7975,
      "empfind": 7976,
      "Interessant": 7977,
      "Szenar": 7978,
      "komplizierter": 7979,
      "spannend": 7980,
      "unsichtbar": 7981,
      "Mechanismus": 7982,
      "tauschen": 7983,
      "weibliche": 7984,
      "Ungleichheit": 7985,
      "Dutzend": 7986,
      "Lächeln": 7987,
      "Kör": 7988,
      "Lass": 7989,
      "Mäuse": 7990,
      "PM": 7991,
      "Ratten": 7992,
      "Ye": 7993,
      "kei": 7994,
      "simp": 7995,
      "yto": 7996,
      "äger": 7997,
      "inzwischen": 7998,
      "strom": 7999,
      "beruf": 8000,
      "verteilen": 8001,
      "beides": 8002,
      "Alkohol": 8003,
      "ives": 8004,
      "hingehen": 8005,
      "Enzy": 8006,
      "muslim": 8007,
      "Gramm": 8008,
      "Autob": 8009,
      "Gebieten": 8010,
      "1950": 8011,
      "Handeln": 8012,
      "beträ": 8013,
      "belo": 8014,
      "Großvater": 8015,
      "Gesundheitssystem": 8016,
      "Chines": 8017,
      "nthet": 8018,
      "Büchern": 8019,
      "systemat": 8020,
      "häusern": 8021,
      "Kontroll": 8022,
      "nahezu": 8023,
      "Bush": 8024,
      "Life": 8025,
      "Wichtigste": 8026,
      "emotionale": 8027,
      "chinesischen": 8028,
      "privaten": 8029,
      "Logik": 8030,
      "angenehm": 8031,
      "arabischen": 8032,
      "jeweils": 8033,
      "Treibhaus": 8034,
      "Motivation": 8035,
      "Übrigens": 8036,
      "computer": 8037,
      "verpflich": 8038,
      "85": 8039,
      "Griechen": 8040,
      "Live": 8041,
      "No": 8042,
      "Valley": 8043,
      "Zä": 8044,
      "bte": 8045,
      "keinem": 8046,
      "lament": 8047,
      "val": 8048,
      "wein": 8049,
      "eröffnet": 8050,
      "inklus": 8051,
      "schme": 8052,
      "verließ": 8053,
      "aufrecht": 8054,
      "ump": 8055,
      "ismen": 8056,
      "ausdrücken": 8057,
      "hent": 8058,
      "überqu": 8059,
      "Vermögen": 8060,
      "Verteilung": 8061,
      "Einheiten": 8062,
      "innere": 8063,
      "Zufrieden": 8064,
      "Ausrüstung": 8065,
      "wiederholt": 8066,
      "Unterwasser": 8067,
      "Sektor": 8068,
      "Umstände": 8069,
      "trocken": 8070,
      "Musl": 8071,
      "Mac": 8072,
      "schöner": 8073,
      "Besitz": 8074,
      "Reserv": 8075,
      "Glücks": 8076,
      "Süß": 8077,
      "erwartete": 8078,
      "jährlich": 8079,
      "ietn": 8080,
      "Kühl": 8081,
      "Magazin": 8082,
      "positiven": 8083,
      "enormen": 8084,
      "Maßnahmen": 8085,
      "Texas": 8086,
      "Thun": 8087,
      "Friedens": 8088,
      "Investition": 8089,
      "archie": 8090,
      "Änderung": 8091,
      "Schwarze": 8092,
      "Resultate": 8093,
      "repräsentiert": 8094,
      "benutzten": 8095,
      "Toiletten": 8096,
      "Fantasie": 8097,
      "Verbesserung": 8098,
      "relevant": 8099,
      "Weihnachts": 8100,
      "sorgfäl": 8101,
      "Prior": 8102,
      "Dialog": 8103,
      "Abt": 8104,
      "Clo": 8105,
      "Fei": 8106,
      "Fels": 8107,
      "Wände": 8108,
      "fossi": 8109,
      "gei": 8110,
      "grad": 8111,
      "kart": 8112,
      "ohlen": 8113,
      "ueller": 8114,
      "erlaub": 8115,
      "erlangen": 8116,
      "anbieten": 8117,
      "auten": 8118,
      "arma": 8119,
      "zuhören": 8120,
      "bedarf": 8121,
      "Integr": 8122,
      "vorn": 8123,
      "vorstell": 8124,
      "wohnen": 8125,
      "Versuchen": 8126,
      "Veranst": 8127,
      "Anweis": 8128,
      "Anwäl": 8129,
      "füt": 8130,
      "gelaufen": 8131,
      "Entste": 8132,
      "räum": 8133,
      "ektar": 8134,
      "wahrhaft": 8135,
      "aku": 8136,
      "beschä": 8137,
      "quellen": 8138,
      "Handlungen": 8139,
      "sicherer": 8140,
      "anzig": 8141,
      "Lebensraum": 8142,
      "kurren": 8143,
      "verlor": 8144,
      "festgestellt": 8145,
      "2004": 8146,
      "offenbar": 8147,
      "gemeinnütz": 8148,
      "Haare": 8149,
      "Internets": 8150,
      "ungeheuer": 8151,
      "Vorträge": 8152,
      "technische": 8153,
      "heutige": 8154,
      "Kapaz": 8155,
      "ianischen": 8156,
      "Schnell": 8157,
      "früheren": 8158,
      "beliebt": 8159,
      "verletzt": 8160,
      "schlimmsten": 8161,
      "Schlagzei": 8162,
      "Entwicklungsländer": 8163,
      "Cola": 8164,
      "Auftrag": 8165,
      "Dienstleistungen": 8166,
      "Fremden": 8167,
      "diskutieren": 8168,
      "Staub": 8169,
      "Erkrankungen": 8170,
      "Arznei": 8171,
      "Bra": 8172,
      "Dig": 8173,
      "Egal": 8174,
      "Hät": 8175,
      "Jähr": 8176,
      "Kenn": 8177,
      "Koch": 8178,
      "Lesen": 8179,
      "Ug": 8180,
      "col": 8181,
      "fett": 8182,
      "hmus": 8183,
      "mess": 8184,
      "nationale": 8185,
      "wörter": 8186,
      "erhielten": 8187,
      "teure": 8188,
      "gemäß": 8189,
      "getestet": 8190,
      "leeren": 8191,
      "ura": 8192,
      "vergleich": 8193,
      "versprechen": 8194,
      "verlangen": 8195,
      "verliebt": 8196,
      "ausmacht": 8197,
      "fürchten": 8198,
      "übersetzen": 8199,
      "enttäu": 8200,
      "spanne": 8201,
      "beizu": 8202,
      "vorgestellt": 8203,
      "vorwärts": 8204,
      "zenten": 8205,
      "Weltall": 8206,
      "ular": 8207,
      "konserv": 8208,
      "zieh": 8209,
      "gefert": 8210,
      "gebäu": 8211,
      "Manhat": 8212,
      "flächen": 8213,
      "Vorder": 8214,
      "Ausland": 8215,
      "letztlich": 8216,
      "Mount": 8217,
      "iale": 8218,
      "max": 8219,
      "Blase": 8220,
      "Arbeitsk": 8221,
      "einziges": 8222,
      "bedeckt": 8223,
      "aktiven": 8224,
      "sicherung": 8225,
      "gestaltet": 8226,
      "elegan": 8227,
      "Allge": 8228,
      "2001": 8229,
      "2006": 8230,
      "immern": 8231,
      "anzugehen": 8232,
      "tiefe": 8233,
      "Gebäudes": 8234,
      "Könnte": 8235,
      "jähriger": 8236,
      "stets": 8237,
      "visuellen": 8238,
      "Ebenen": 8239,
      "schreibe": 8240,
      "verstecken": 8241,
      "international": 8242,
      "Myth": 8243,
      "programmieren": 8244,
      "Löwen": 8245,
      "Ernst": 8246,
      "Betracht": 8247,
      "Erstaun": 8248,
      "komplizierte": 8249,
      "draht": 8250,
      "Katastrophen": 8251,
      "durfte": 8252,
      "Flederm": 8253,
      "Pferd": 8254,
      "flexi": 8255,
      "mochte": 8256,
      "Astron": 8257,
      "Treibstoff": 8258,
      "Zufriedenheit": 8259,
      "47": 8260,
      "Big": 8261,
      "Cal": 8262,
      "Jer": 8263,
      "Zut": 8264,
      "dacht": 8265,
      "fass": 8266,
      "ju": 8267,
      "tauch": 8268,
      "wjet": 8269,
      "anfängt": 8270,
      "schü": 8271,
      "geöffnet": 8272,
      "gelangt": 8273,
      "itution": 8274,
      "befassen": 8275,
      "vergewalt": 8276,
      "sichere": 8277,
      "überlebt": 8278,
      "spunkt": 8279,
      "Stich": 8280,
      "gesün": 8281,
      "Verzwei": 8282,
      "Verhand": 8283,
      "Ansichten": 8284,
      "hinsichtlich": 8285,
      "ruft": 8286,
      "blasen": 8287,
      "izz": 8288,
      "Konzepte": 8289,
      "Entwurf": 8290,
      "?\",": 8291,
      "Überall": 8292,
      "vierten": 8293,
      "ogenese": 8294,
      "Energieverbrauch": 8295,
      "now": 8296,
      "tiefen": 8297,
      "Schwanz": 8298,
      "ausgegeben": 8299,
      "Mikroskop": 8300,
      "krankheiten": 8301,
      "Europä": 8302,
      "70ern": 8303,
      "Symbo": 8304,
      "William": 8305,
      "Onkel": 8306,
      "summen": 8307,
      "schreckliche": 8308,
      "Ehemann": 8309,
      "Wirtschaftswachstum": 8310,
      "Statistik": 8311,
      "Hören": 8312,
      "Sammlung": 8313,
      "benutzte": 8314,
      "Wurzeln": 8315,
      "Beitrag": 8316,
      "Versorgung": 8317,
      "Feedback": 8318,
      "Ass": 8319,
      "Rauch": 8320,
      "SS": 8321,
      "Tum": 8322,
      "ahmen": 8323,
      "cir": 8324,
      "hten": 8325,
      "ati": 8326,
      "befest": 8327,
      "aufeinander": 8328,
      "umb": 8329,
      "ausschließlich": 8330,
      "demonstr": 8331,
      "Erfinder": 8332,
      "reide": 8333,
      "gerissen": 8334,
      "Wasch": 8335,
      "gewinn": 8336,
      "äußer": 8337,
      "setzungen": 8338,
      "Autoren": 8339,
      "Werden": 8340,
      "Filter": 8341,
      "zahlt": 8342,
      "Amerikas": 8343,
      "radikal": 8344,
      "Lux": 8345,
      "politik": 8346,
      "träumen": 8347,
      "Bürgermeister": 8348,
      "physischen": 8349,
      "Belast": 8350,
      "verrückte": 8351,
      "mächt": 8352,
      "krimin": 8353,
      "älteren": 8354,
      "Gedichte": 8355,
      "kreiert": 8356,
      "fuhren": 8357,
      "Benutz": 8358,
      "hüb": 8359,
      "dioxid": 8360,
      "Hyper": 8361,
      "intelligente": 8362,
      "Elektronen": 8363,
      "Globalisierung": 8364,
      "Waffe": 8365,
      "verringern": 8366,
      "sperson": 8367,
      "Oxyto": 8368,
      "Toilette": 8369,
      "beeindruckend": 8370,
      "Martin": 8371,
      "Berechnungen": 8372,
      "Schauspieler": 8373,
      "kontakt": 8374,
      "beträgt": 8375,
      "Muslime": 8376,
      "Uganda": 8377,
      "Kuchen": 8378,
      "Mei": 8379,
      "Smit": 8380,
      "Tja": 8381,
      "iop": 8382,
      "kund": 8383,
      "kod": 8384,
      "leit": 8385,
      "endete": 8386,
      "ches": 8387,
      "intu": 8388,
      "gelehrt": 8389,
      "berichte": 8390,
      "verse": 8391,
      "sens": 8392,
      "ennung": 8393,
      "Wird": 8394,
      "gesunde": 8395,
      "Verw": 8396,
      "Anges": 8397,
      "Bewohner": 8398,
      "Spur": 8399,
      "gefol": 8400,
      "gebungen": 8401,
      "izop": 8402,
      "teilnehmen": 8403,
      "aktuellen": 8404,
      "gestiegen": 8405,
      "ätzen": 8406,
      "jenseits": 8407,
      "otto": 8408,
      "holz": 8409,
      "auszudrücken": 8410,
      "global": 8411,
      "straße": 8412,
      "Flugzeuge": 8413,
      "Fahrzeuge": 8414,
      "Fernseher": 8415,
      "Etwa": 8416,
      "Hinweise": 8417,
      "ränken": 8418,
      "verschwindet": 8419,
      "Magnet": 8420,
      "Fußball": 8421,
      "Appl": 8422,
      "ältere": 8423,
      "Frühl": 8424,
      "Knoten": 8425,
      "Wohlbefinden": 8426,
      "Käfer": 8427,
      "niedriger": 8428,
      "Einkommens": 8429,
      "höchst": 8430,
      "maschinen": 8431,
      "Hundert": 8432,
      "Korallenri": 8433,
      "Journalisten": 8434,
      "Oxford": 8435,
      "Engagement": 8436,
      "Raketen": 8437,
      "Flüssigkeit": 8438,
      "Smith": 8439,
      "BF": 8440,
      "Ever": 8441,
      "Gift": 8442,
      "Hollywood": 8443,
      "Mahl": 8444,
      "Shir": 8445,
      "kind": 8446,
      "kauft": 8447,
      "krise": 8448,
      "kochen": 8449,
      "rüber": 8450,
      "trage": 8451,
      "treibt": 8452,
      "uver": 8453,
      "vas": 8454,
      "wol": 8455,
      "Übung": 8456,
      "asien": 8457,
      "genden": 8458,
      "elen": 8459,
      "eltern": 8460,
      "lehnen": 8461,
      "sequenz": 8462,
      "terien": 8463,
      "Sieben": 8464,
      "aufmerk": 8465,
      "umwelt": 8466,
      "ish": 8467,
      "mengen": 8468,
      "lenk": 8469,
      "agte": 8470,
      "werdet": 8471,
      "änzen": 8472,
      "Probe": 8473,
      "Anhän": 8474,
      "klicken": 8475,
      "geringer": 8476,
      "Behör": 8477,
      "Real": 8478,
      "unterhalb": 8479,
      "samen": 8480,
      "Aug": 8481,
      "gelö": 8482,
      "Ausgaben": 8483,
      "garten": 8484,
      "Umgang": 8485,
      "irgendwelche": 8486,
      "tigung": 8487,
      "kooper": 8488,
      "folgte": 8489,
      "offensicht": 8490,
      "wertung": 8491,
      "Lehrern": 8492,
      "Videospiele": 8493,
      "wissenschaftlich": 8494,
      "Durchschnitts": 8495,
      "Höhle": 8496,
      "bedingungen": 8497,
      "basierte": 8498,
      "komplexer": 8499,
      "bewegte": 8500,
      "Volks": 8501,
      "Hügel": 8502,
      "Business": 8503,
      "vermute": 8504,
      "Carol": 8505,
      "generieren": 8506,
      "umzusetzen": 8507,
      "einzigartig": 8508,
      "Schriftsteller": 8509,
      "künstliche": 8510,
      "Population": 8511,
      "religiösen": 8512,
      "erledigen": 8513,
      "Nano": 8514,
      "private": 8515,
      "Illusion": 8516,
      "Letztes": 8517,
      "Green": 8518,
      "Symmetrie": 8519,
      "Angebot": 8520,
      "Reichtum": 8521,
      "Moskit": 8522,
      "inklusive": 8523,
      "Oxytocin": 8524,
      "Dün": 8525,
      "Hut": 8526,
      "Lau": 8527,
      "Nov": 8528,
      "Nadel": 8529,
      "Rab": 8530,
      "Zig": 8531,
      "aßen": 8532,
      "drit": 8533,
      "gsten": 8534,
      "haufen": 8535,
      "nationalen": 8536,
      "wuch": 8537,
      "energie": 8538,
      "ersetzt": 8539,
      "undern": 8540,
      "anspr": 8541,
      "anlage": 8542,
      "angetrieben": 8543,
      "schild": 8544,
      "gegessen": 8545,
      "leger": 8546,
      "bedenken": 8547,
      "betreffen": 8548,
      "beruh": 8549,
      "verdien": 8550,
      "verzweif": 8551,
      "menten": 8552,
      "menschen": 8553,
      "entlich": 8554,
      "ffin": 8555,
      "Intens": 8556,
      "herab": 8557,
      "kannten": 8558,
      "reiste": 8559,
      "Einblick": 8560,
      "zens": 8561,
      "unterhalten": 8562,
      "fehler": 8563,
      "glades": 8564,
      "pften": 8565,
      "way": 8566,
      "Nest": 8567,
      "Blü": 8568,
      "Weißt": 8569,
      "öffnete": 8570,
      "weltweite": 8571,
      "inneren": 8572,
      "Parlament": 8573,
      "Betriebs": 8574,
      "entdeckten": 8575,
      "glücklicherweise": 8576,
      "vorhersagen": 8577,
      "sammelt": 8578,
      "Poster": 8579,
      "Hölle": 8580,
      "fertigen": 8581,
      "wesenheit": 8582,
      "einzusetzen": 8583,
      "Trink": 8584,
      "Blickwinkel": 8585,
      "kämpft": 8586,
      "üchtig": 8587,
      "vertei": 8588,
      "theoret": 8589,
      "wünschen": 8590,
      "archite": 8591,
      "Analog": 8592,
      "ölf": 8593,
      "chemischen": 8594,
      "außergewöhnliche": 8595,
      "billiger": 8596,
      "nutzten": 8597,
      "Nahrungsmittel": 8598,
      "schaffte": 8599,
      "zukünftigen": 8600,
      "Tempo": 8601,
      "dramatisch": 8602,
      "Rechner": 8603,
      "Praxis": 8604,
      "Titan": 8605,
      "Austausch": 8606,
      "Baseball": 8607,
      "Entstehung": 8608,
      "aufmerksam": 8609,
      "48": 8610,
      "Brie": 8611,
      "ET": 8612,
      "King": 8613,
      "Option": 8614,
      "Pause": 8615,
      "Rio": 8616,
      "Sir": 8617,
      "Seil": 8618,
      "dumm": 8619,
      "fabr": 8620,
      "länder": 8621,
      "rational": 8622,
      "erfre": 8623,
      "stisch": 8624,
      "eis": 8625,
      "eifen": 8626,
      "zustand": 8627,
      "leute": 8628,
      "verlangsam": 8629,
      "ethn": 8630,
      "spont": 8631,
      "Stille": 8632,
      "Inhalte": 8633,
      "vorkommen": 8634,
      "gerecht": 8635,
      "Bedenken": 8636,
      "liest": 8637,
      "durchs": 8638,
      "ingung": 8639,
      "schief": 8640,
      "schieben": 8641,
      "Auswirkung": 8642,
      "zurückkommen": 8643,
      "akul": 8644,
      "schwach": 8645,
      "Studium": 8646,
      "Werke": 8647,
      "Gerade": 8648,
      "Dennoch": 8649,
      "schönes": 8650,
      "Bron": 8651,
      "Gegenstand": 8652,
      "Selbstmord": 8653,
      "Urknall": 8654,
      "technik": 8655,
      "Mathe": 8656,
      "Papa": 8657,
      "abhängigkeit": 8658,
      "Standpunkt": 8659,
      "illegal": 8660,
      "tragung": 8661,
      "behaupte": 8662,
      "Ballon": 8663,
      "Köpfen": 8664,
      "ärmsten": 8665,
      "allgemeinen": 8666,
      "zukünftige": 8667,
      "Figuren": 8668,
      "Oktober": 8669,
      "Schädel": 8670,
      "Nervenzellen": 8671,
      "erinnerte": 8672,
      "Kosm": 8673,
      "izophren": 8674,
      "Aqu": 8675,
      "Bäumen": 8676,
      "Gand": 8677,
      "Hab": 8678,
      "Hum": 8679,
      "KW": 8680,
      "Mer": 8681,
      "Mist": 8682,
      "Mauer": 8683,
      "Penn": 8684,
      "RT": 8685,
      "Satur": 8686,
      "Welle": 8687,
      "Wahn": 8688,
      "Wollen": 8689,
      "jo": 8690,
      "oc": 8691,
      "phin": 8692,
      "sinken": 8693,
      "zheimer": 8694,
      "erfüllt": 8695,
      "stel": 8696,
      "einheit": 8697,
      "anony": 8698,
      "zulassen": 8699,
      "zusätzlich": 8700,
      "bergen": 8701,
      "verbrauchen": 8702,
      "veranst": 8703,
      "vermittelt": 8704,
      "reten": 8705,
      "bene": 8706,
      "mittag": 8707,
      "ausführen": 8708,
      "ausgebildet": 8709,
      "übersetzt": 8710,
      "Schreibt": 8711,
      "breit": 8712,
      "Alzheimer": 8713,
      "wecken": 8714,
      "örder": 8715,
      "objekt": 8716,
      "unterscheidet": 8717,
      "kept": 8718,
      "zweitens": 8719,
      "geschritten": 8720,
      "gewiss": 8721,
      "Griff": 8722,
      "schlussendlich": 8723,
      "schnelle": 8724,
      "hafen": 8725,
      "fühlten": 8726,
      "Werten": 8727,
      "Extra": 8728,
      "Alltag": 8729,
      "Minister": 8730,
      "Liefer": 8731,
      "angekommen": 8732,
      "linke": 8733,
      "Lichter": 8734,
      "Kooperation": 8735,
      "Gegenstände": 8736,
      "Appar": 8737,
      "Schülern": 8738,
      "erkunden": 8739,
      "Kohlendioxid": 8740,
      "Betrachten": 8741,
      "virtuellen": 8742,
      "Trends": 8743,
      "günstig": 8744,
      "nachhaltige": 8745,
      "Juli": 8746,
      "grösser": 8747,
      "Fliege": 8748,
      "Entschuldigung": 8749,
      "bedroht": 8750,
      "Intuition": 8751,
      "Manhattan": 8752,
      "42": 8753,
      "Apfel": 8754,
      "Dra": 8755,
      "Falle": 8756,
      "Hals": 8757,
      "Jim": 8758,
      "Kab": 8759,
      "Kür": 8760,
      "Kiste": 8761,
      "Oft": 8762,
      "aill": 8763,
      "lese": 8764,
      "mill": 8765,
      "mobil": 8766,
      "nör": 8767,
      "erm": 8768,
      "ungewöhnlich": 8769,
      "stö": 8770,
      "any": 8771,
      "bew": 8772,
      "befr": 8773,
      "beachten": 8774,
      "begriff": 8775,
      "regen": 8776,
      "überprüfen": 8777,
      "Diesen": 8778,
      "Erschein": 8779,
      "Erwärmung": 8780,
      "Geh": 8781,
      "Gefahren": 8782,
      "Prop": 8783,
      "heber": 8784,
      "Einmal": 8785,
      "graus": 8786,
      "Spuren": 8787,
      "Spenden": 8788,
      "ulationen": 8789,
      "konst": 8790,
      "Zeitungen": 8791,
      "Dinger": 8792,
      "gewinnt": 8793,
      "fleisch": 8794,
      "Vorgehen": 8795,
      "spielten": 8796,
      "heiße": 8797,
      "gestoßen": 8798,
      "Lebensqualität": 8799,
      "Datenbank": 8800,
      "ips": 8801,
      "Strahlung": 8802,
      "Mai": 8803,
      "Liebes": 8804,
      "zeichnung": 8805,
      "Bereit": 8806,
      "Privileg": 8807,
      "schweren": 8808,
      "zerr": 8809,
      "Produktivität": 8810,
      "Fotograf": 8811,
      "schwierigen": 8812,
      "ührung": 8813,
      "alisierte": 8814,
      "gewöhnlichen": 8815,
      "Ruanda": 8816,
      "Blutgefä": 8817,
      "Ärzten": 8818,
      "sinnvoll": 8819,
      "bewerten": 8820,
      "winzige": 8821,
      "Operationen": 8822,
      "profitieren": 8823,
      "männer": 8824,
      "schafften": 8825,
      "Gestaltung": 8826,
      "Felsen": 8827,
      "Depressionen": 8828,
      "Fischerei": 8829,
      "Arbeitsplatz": 8830,
      "Brüder": 8831,
      "hoffnungs": 8832,
      "kommst": 8833,
      "verdammt": 8834,
      "ehemal": 8835,
      "Dynamik": 8836,
      "Allerdings": 8837,
      "Abhängigkeit": 8838,
      "sträger": 8839,
      "Euro": 8840,
      "Glühbir": 8841,
      "Front": 8842,
      "Amt": 8843,
      "Beinen": 8844,
      "Dichte": 8845,
      "Grü": 8846,
      "Nu": 8847,
      "Oel": 8848,
      "Punkten": 8849,
      "Sätze": 8850,
      "Tech": 8851,
      "Watt": 8852,
      "dü": 8853,
      "drucken": 8854,
      "gorie": 8855,
      "live": 8856,
      "swert": 8857,
      "sitz": 8858,
      "ua": 8859,
      "wich": 8860,
      "erh": 8861,
      "erreich": 8862,
      "erfordert": 8863,
      "unend": 8864,
      "esie": 8865,
      "istanz": 8866,
      "senken": 8867,
      "auftreten": 8868,
      "igma": 8869,
      "aussen": 8870,
      "designer": 8871,
      "Versagen": 8872,
      "komisch": 8873,
      "besp": 8874,
      "obby": 8875,
      "Später": 8876,
      "ember": 8877,
      "unterricht": 8878,
      "unterhalt": 8879,
      "Geschmack": 8880,
      "geschützt": 8881,
      "aps": 8882,
      "Manager": 8883,
      "hole": 8884,
      "pack": 8885,
      "aterial": 8886,
      "Weiß": 8887,
      "beschützen": 8888,
      "rix": 8889,
      "wohlhaben": 8890,
      "erzählten": 8891,
      "Anthrop": 8892,
      "ösung": 8893,
      "Menschlichkeit": 8894,
      "Lehre": 8895,
      "ähnliches": 8896,
      "prägt": 8897,
      "sorganis": 8898,
      "strahlen": 8899,
      "Flughafen": 8900,
      "Hinweis": 8901,
      "Supermarkt": 8902,
      "Bewusstseins": 8903,
      "Wörterbuch": 8904,
      "farb": 8905,
      "sichtigt": 8906,
      "Kriege": 8907,
      "gnor": 8908,
      "ministerium": 8909,
      "afrikanische": 8910,
      "Abstand": 8911,
      "Köpfe": 8912,
      "konstruieren": 8913,
      "Impfstoff": 8914,
      "Algorithmus": 8915,
      "Olymp": 8916,
      "effizienter": 8917,
      "Empathie": 8918,
      "zusätzliche": 8919,
      "pflicht": 8920,
      "hilfreich": 8921,
      "Winkel": 8922,
      "Smart": 8923,
      "Elektronik": 8924,
      "Älter": 8925,
      "Asteroiden": 8926,
      "Pazifik": 8927,
      "circa": 8928,
      "Av": 8929,
      "Effekte": 8930,
      "Gast": 8931,
      "Ham": 8932,
      "Iron": 8933,
      "Tätigkeit": 8934,
      "dum": 8935,
      "ey": 8936,
      "idaten": 8937,
      "ps": 8938,
      "weinen": 8939,
      "ypt": 8940,
      "Ökonom": 8941,
      "errichten": 8942,
      "unendlich": 8943,
      "eigung": 8944,
      "auben": 8945,
      "schel": 8946,
      "schuss": 8947,
      "sech": 8948,
      "abgeschlossen": 8949,
      "vermehr": 8950,
      "verbraucht": 8951,
      "habet": 8952,
      "warfen": 8953,
      "entschlossen": 8954,
      "Schwerk": 8955,
      "allzu": 8956,
      "Anerkennung": 8957,
      "weh": 8958,
      "Reden": 8959,
      "iller": 8960,
      "diesmal": 8961,
      "ops": 8962,
      "geld": 8963,
      "kontin": 8964,
      "Grab": 8965,
      "Management": 8966,
      "weitermachen": 8967,
      "Konkurren": 8968,
      "Beide": 8969,
      "Umfrage": 8970,
      "begrü": 8971,
      "mail": 8972,
      "...\"": 8973,
      "treter": 8974,
      "Kluft": 8975,
      "sicherstellen": 8976,
      "Mary": 8977,
      "2003": 8978,
      "jenige": 8979,
      "Glücklicherweise": 8980,
      "marsch": 8981,
      "Pocken": 8982,
      "iban": 8983,
      "Küsten": 8984,
      "tollen": 8985,
      "fördert": 8986,
      "Vortrags": 8987,
      "Institute": 8988,
      "Institution": 8989,
      "Regenwald": 8990,
      "Talent": 8991,
      "Berufs": 8992,
      "allgemeine": 8993,
      "spezifische": 8994,
      "Störungen": 8995,
      "firma": 8996,
      "Amazonas": 8997,
      "Stämme": 8998,
      "bräuch": 8999,
      "symbol": 9000,
      "Vagina": 9001,
      "clever": 9002,
      "Florida": 9003,
      "Schwerkraft": 9004,
      "55": 9005,
      "Dick": 9006,
      "Gates": 9007,
      "Hub": 9008,
      "Haust": 9009,
      "Ignor": 9010,
      "Jon": 9011,
      "Kauf": 9012,
      "Kok": 9013,
      "Lag": 9014,
      "Lärm": 9015,
      "Net": 9016,
      "Pyr": 9017,
      "Riff": 9018,
      "Tän": 9019,
      "Tenden": 9020,
      "Ul": 9021,
      "].": 9022,
      "aa": 9023,
      "ae": 9024,
      "dichte": 9025,
      "gungen": 9026,
      "gner": 9027,
      "iat": 9028,
      "jü": 9029,
      "put": 9030,
      "sitze": 9031,
      "ya": 9032,
      "Äth": 9033,
      "äum": 9034,
      "öh": 9035,
      "erzielen": 9036,
      "inson": 9037,
      "anische": 9038,
      "alismus": 9039,
      "gefüllt": 9040,
      "zugleich": 9041,
      "urteilen": 9042,
      "beendet": 9043,
      "verei": 9044,
      "versagen": 9045,
      "regung": 9046,
      "splan": 9047,
      "Stir": 9048,
      "Prob": 9049,
      "Anzeichen": 9050,
      "klat": 9051,
      "Besten": 9052,
      "grenz": 9053,
      "obi": 9054,
      "samer": 9055,
      "Media": 9056,
      "flü": 9057,
      "Orchester": 9058,
      "Sec": 9059,
      "begrün": 9060,
      "Kindersterblichkeit": 9061,
      "einziger": 9062,
      "ähmt": 9063,
      "Übergang": 9064,
      "Waren": 9065,
      "ipen": 9066,
      "Interpret": 9067,
      "soziales": 9068,
      "folgender": 9069,
      "Darm": 9070,
      "Gleichheit": 9071,
      "kehrte": 9072,
      "entscheidende": 9073,
      "tägliche": 9074,
      "Leistungen": 9075,
      "Nordamerika": 9076,
      "programmiert": 9077,
      "leidenschaft": 9078,
      "Offenheit": 9079,
      "Untersuchungen": 9080,
      "freundlich": 9081,
      "Conne": 9082,
      "Roman": 9083,
      "Stoffwechsel": 9084,
      "Autorität": 9085,
      "gewissermaßen": 9086,
      "gigant": 9087,
      "Origami": 9088,
      "Rollstuhl": 9089,
      "Summe": 9090,
      "Rettung": 9091,
      "Mittleren": 9092,
      "Mischung": 9093,
      "Latein": 9094,
      "häufiger": 9095,
      "Geburts": 9096,
      "Tragödie": 9097,
      "Benzin": 9098,
      "Allgemeinen": 9099,
      "Saturn": 9100,
      "Äthiop": 9101,
      "Cra": 9102,
      "Dop": 9103,
      "Dauer": 9104,
      "Fro": 9105,
      "Hen": 9106,
      "II": 9107,
      "Lim": 9108,
      "Leit": 9109,
      "SW": 9110,
      "Tut": 9111,
      "Taten": 9112,
      "bast": 9113,
      "ost": 9114,
      "sal": 9115,
      "uzin": 9116,
      "ville": 9117,
      "“,": 9118,
      "ermöglich": 9119,
      "cha": 9120,
      "ankommen": 9121,
      "ansprechen": 9122,
      "isto": 9123,
      "abschließen": 9124,
      "bedienen": 9125,
      "bewältigen": 9126,
      "amide": 9127,
      "überprü": 9128,
      "überwältigen": 9129,
      "Stimmt": 9130,
      "Schm": 9131,
      "Schock": 9132,
      "wechs": 9133,
      "landete": 9134,
      "Leg": 9135,
      "liefen": 9136,
      "wurz": 9137,
      "hingegen": 9138,
      "Sprecher": 9139,
      "rug": 9140,
      "konkre": 9141,
      "äub": 9142,
      "Medi": 9143,
      "flach": 9144,
      "Kond": 9145,
      "kampf": 9146,
      "wahn": 9147,
      "dreimal": 9148,
      "plik": 9149,
      "Genie": 9150,
      "nunft": 9151,
      "jagen": 9152,
      "irgendwas": 9153,
      "Herkunft": 9154,
      "ultim": 9155,
      "Werbe": 9156,
      "Antarkt": 9157,
      "startete": 9158,
      "Steu": 9159,
      "stattfinden": 9160,
      "angepasst": 9161,
      "Kompro": 9162,
      "syn": 9163,
      "ensystem": 9164,
      "anzuschauen": 9165,
      "Bewegungs": 9166,
      "ausgewählt": 9167,
      "eichert": 9168,
      "schickt": 9169,
      "erschien": 9170,
      "Tricks": 9171,
      "tolles": 9172,
      "aktivieren": 9173,
      "perfekten": 9174,
      "Abendessen": 9175,
      "gefroren": 9176,
      "steigern": 9177,
      "Kommunikations": 9178,
      "sexuell": 9179,
      "Norwegen": 9180,
      "genetisch": 9181,
      "Königin": 9182,
      "finanzieren": 9183,
      "ursprüngliche": 9184,
      "probleme": 9185,
      "weichen": 9186,
      "Fabriken": 9187,
      "Panik": 9188,
      "liber": 9189,
      "Chirurg": 9190,
      "onomie": 9191,
      "speichern": 9192,
      "Laser": 9193,
      "Mittagessen": 9194,
      "korrekt": 9195,
      "Rhythmus": 9196,
      "erfuhr": 9197,
      "industrielle": 9198,
      "Hardware": 9199,
      "Fan": 9200,
      "Gei": 9201,
      "Gore": 9202,
      "Hau": 9203,
      "Jes": 9204,
      "KB": 9205,
      "Lust": 9206,
      "LED": 9207,
      "Länge": 9208,
      "LKW": 9209,
      "Matt": 9210,
      "Messer": 9211,
      "Prem": 9212,
      "Ren": 9213,
      "Sä": 9214,
      "Sag": 9215,
      "Sah": 9216,
      "Tes": 9217,
      "Vietn": 9218,
      "Wende": 9219,
      "dbar": 9220,
      "fiz": 9221,
      "här": 9222,
      "wolle": 9223,
      "ähm": 9224,
      "unwahrscheinlich": 9225,
      "einig": 9226,
      "anstellen": 9227,
      "angeschaut": 9228,
      "schütz": 9229,
      "arzt": 9230,
      "zusehen": 9231,
      "orten": 9232,
      "vertreten": 9233,
      "verdopp": 9234,
      "annten": 9235,
      "öne": 9236,
      "ray": 9237,
      "Schall": 9238,
      "Erforschung": 9239,
      "Erziehung": 9240,
      "macher": 9241,
      "Anfän": 9242,
      "halben": 9243,
      "gerin": 9244,
[...]
